<unk>	0.0
<s>	0.0
</s>	0.0
<pad>	0.0
<0x00>	0.0
<0x01>	0.0
<0x02>	0.0
<0x03>	0.0
<0x04>	0.0
<0x05>	0.0
<0x06>	0.0
<0x07>	0.0
<0x08>	0.0
<0x09>	0.0
<0x0A>	0.0
<0x0B>	0.0
<0x0C>	0.0
<0x0D>	0.0
<0x0E>	0.0
<0x0F>	0.0
<0x10>	0.0
<0x11>	0.0
<0x12>	0.0
<0x13>	0.0
<0x14>	0.0
<0x15>	0.0
<0x16>	0.0
<0x17>	0.0
<0x18>	0.0
<0x19>	0.0
<0x1A>	0.0
<0x1B>	0.0
<0x1C>	0.0
<0x1D>	0.0
<0x1E>	0.0
<0x1F>	0.0
<0x20>	0.0
<0x21>	0.0
<0x22>	0.0
<0x23>	0.0
<0x24>	0.0
<0x25>	0.0
<0x26>	0.0
<0x27>	0.0
<0x28>	0.0
<0x29>	0.0
<0x2A>	0.0
<0x2B>	0.0
<0x2C>	0.0
<0x2D>	0.0
<0x2E>	0.0
<0x2F>	0.0
<0x30>	0.0
<0x31>	0.0
<0x32>	0.0
<0x33>	0.0
<0x34>	0.0
<0x35>	0.0
<0x36>	0.0
<0x37>	0.0
<0x38>	0.0
<0x39>	0.0
<0x3A>	0.0
<0x3B>	0.0
<0x3C>	0.0
<0x3D>	0.0
<0x3E>	0.0
<0x3F>	0.0
<0x40>	0.0
<0x41>	0.0
<0x42>	0.0
<0x43>	0.0
<0x44>	0.0
<0x45>	0.0
<0x46>	0.0
<0x47>	0.0
<0x48>	0.0
<0x49>	0.0
<0x4A>	0.0
<0x4B>	0.0
<0x4C>	0.0
<0x4D>	0.0
<0x4E>	0.0
<0x4F>	0.0
<0x50>	0.0
<0x51>	0.0
<0x52>	0.0
<0x53>	0.0
<0x54>	0.0
<0x55>	0.0
<0x56>	0.0
<0x57>	0.0
<0x58>	0.0
<0x59>	0.0
<0x5A>	0.0
<0x5B>	0.0
<0x5C>	0.0
<0x5D>	0.0
<0x5E>	0.0
<0x5F>	0.0
<0x60>	0.0
<0x61>	0.0
<0x62>	0.0
<0x63>	0.0
<0x64>	0.0
<0x65>	0.0
<0x66>	0.0
<0x67>	0.0
<0x68>	0.0
<0x69>	0.0
<0x6A>	0.0
<0x6B>	0.0
<0x6C>	0.0
<0x6D>	0.0
<0x6E>	0.0
<0x6F>	0.0
<0x70>	0.0
<0x71>	0.0
<0x72>	0.0
<0x73>	0.0
<0x74>	0.0
<0x75>	0.0
<0x76>	0.0
<0x77>	0.0
<0x78>	0.0
<0x79>	0.0
<0x7A>	0.0
<0x7B>	0.0
<0x7C>	0.0
<0x7D>	0.0
<0x7E>	0.0
<0x7F>	0.0
<0x80>	0.0
<0x81>	0.0
<0x82>	0.0
<0x83>	0.0
<0x84>	0.0
<0x85>	0.0
<0x86>	0.0
<0x87>	0.0
<0x88>	0.0
<0x89>	0.0
<0x8A>	0.0
<0x8B>	0.0
<0x8C>	0.0
<0x8D>	0.0
<0x8E>	0.0
<0x8F>	0.0
<0x90>	0.0
<0x91>	0.0
<0x92>	0.0
<0x93>	0.0
<0x94>	0.0
<0x95>	0.0
<0x96>	0.0
<0x97>	0.0
<0x98>	0.0
<0x99>	0.0
<0x9A>	0.0
<0x9B>	0.0
<0x9C>	0.0
<0x9D>	0.0
<0x9E>	0.0
<0x9F>	0.0
<0xA0>	0.0
<0xA1>	0.0
<0xA2>	0.0
<0xA3>	0.0
<0xA4>	0.0
<0xA5>	0.0
<0xA6>	0.0
<0xA7>	0.0
<0xA8>	0.0
<0xA9>	0.0
<0xAA>	0.0
<0xAB>	0.0
<0xAC>	0.0
<0xAD>	0.0
<0xAE>	0.0
<0xAF>	0.0
<0xB0>	0.0
<0xB1>	0.0
<0xB2>	0.0
<0xB3>	0.0
<0xB4>	0.0
<0xB5>	0.0
<0xB6>	0.0
<0xB7>	0.0
<0xB8>	0.0
<0xB9>	0.0
<0xBA>	0.0
<0xBB>	0.0
<0xBC>	0.0
<0xBD>	0.0
<0xBE>	0.0
<0xBF>	0.0
<0xC0>	0.0
<0xC1>	0.0
<0xC2>	0.0
<0xC3>	0.0
<0xC4>	0.0
<0xC5>	0.0
<0xC6>	0.0
<0xC7>	0.0
<0xC8>	0.0
<0xC9>	0.0
<0xCA>	0.0
<0xCB>	0.0
<0xCC>	0.0
<0xCD>	0.0
<0xCE>	0.0
<0xCF>	0.0
<0xD0>	0.0
<0xD1>	0.0
<0xD2>	0.0
<0xD3>	0.0
<0xD4>	0.0
<0xD5>	0.0
<0xD6>	0.0
<0xD7>	0.0
<0xD8>	0.0
<0xD9>	0.0
<0xDA>	0.0
<0xDB>	0.0
<0xDC>	0.0
<0xDD>	0.0
<0xDE>	0.0
<0xDF>	0.0
<0xE0>	0.0
<0xE1>	0.0
<0xE2>	0.0
<0xE3>	0.0
<0xE4>	0.0
<0xE5>	0.0
<0xE6>	0.0
<0xE7>	0.0
<0xE8>	0.0
<0xE9>	0.0
<0xEA>	0.0
<0xEB>	0.0
<0xEC>	0.0
<0xED>	0.0
<0xEE>	0.0
<0xEF>	0.0
<0xF0>	0.0
<0xF1>	0.0
<0xF2>	0.0
<0xF3>	0.0
<0xF4>	0.0
<0xF5>	0.0
<0xF6>	0.0
<0xF7>	0.0
<0xF8>	0.0
<0xF9>	0.0
<0xFA>	0.0
<0xFB>	0.0
<0xFC>	0.0
<0xFD>	0.0
<0xFE>	0.0
<0xFF>	0.0
▁	-2.884568691253662
s	-3.2484734058380127
,	-3.293511152267456
.	-3.3522086143493652
'	-3.691579580307007
▁the	-3.741624355316162
▁to	-4.045279026031494
▁a	-4.066256999969482
▁I	-4.0755815505981445
▁and	-4.241729259490967
▁you	-4.310611248016357
▁that	-4.342050075531006
▁of	-4.390951633453369
ing	-4.502481937408447
t	-4.5397047996521
▁it	-4.542901515960693
▁in	-4.638480186462402
▁is	-4.943281650543213
ed	-4.943328857421875
▁be	-5.043965816497803
re	-5.14577054977417
▁we	-5.182724952697754
▁like	-5.221669673919678
m	-5.342883110046387
▁for	-5.343321800231934
▁this	-5.363556861877441
▁was	-5.375865936279297
▁And	-5.445766925811768
▁on	-5.466545581817627
▁know	-5.47384786605835
▁have	-5.571041107177734
▁with	-5.58411169052124
?	-5.620762348175049
▁they	-5.640599727630615
▁so	-5.654904842376709
er	-5.673520088195801
▁just	-5.677209377288818
▁what	-5.72856330871582
▁So	-5.789290904998779
▁do	-5.848136901855469
▁not	-5.849341869354248
▁some	-5.853160858154297
▁he	-5.866663932800293
▁can	-5.883192539215088
▁are	-5.899616241455078
▁but	-5.9202561378479
n	-5.930228233337402
d	-5.950862407684326
▁me	-5.984400272369385
▁at	-5.9927825927734375
▁there	-5.994783401489258
▁or	-5.998849391937256
▁your	-6.006519317626953
▁my	-6.017693996429443
ve	-6.01771354675293
▁about	-6.023505687713623
0	-6.0314812660217285
▁all	-6.051407814025879
▁get	-6.057258605957031
▁think	-6.073665142059326
cause	-6.094570159912109
▁out	-6.11068058013916
▁one	-6.11893367767334
ly	-6.123717784881592
▁p	-6.127171993255615
▁going	-6.136852264404297
al	-6.18625545501709
y	-6.193512916564941
▁if	-6.2064433097839355
▁as	-6.226637363433838
▁up	-6.236567974090576
▁c	-6.243194103240967
▁don	-6.256308078765869
▁It	-6.295454502105713
r	-6.328939437866211
ll	-6.33448600769043
e	-6.3421173095703125
-	-6.345717430114746
▁re	-6.3473334312438965
▁thing	-6.348674774169922
▁from	-6.352749824523926
1	-6.3541717529296875
really	-6.389099597930908
▁You	-6.401214599609375
thing	-6.417024612426758
▁right	-6.424452304840088
people	-6.425020217895508
▁want	-6.425827980041504
▁when	-6.43815803527832
ally	-6.453556537628174
▁go	-6.476170063018799
▁then	-6.486055850982666
▁But	-6.499558448791504
▁an	-6.500698566436768
▁no	-6.534000873565674
▁had	-6.5463056564331055
in	-6.5568647384643555
▁Yeah	-6.568700790405273
▁would	-6.5701375007629395
▁say	-6.590750694274902
▁them	-6.595056056976318
▁time	-6.602702617645264
a	-6.629042148590088
tion	-6.633601665496826
▁The	-6.638084411621094
2	-6.6401753425598145
▁more	-6.643313884735107
▁how	-6.651402950286865
▁see	-6.664009094238281
▁got	-6.672194957733154
▁our	-6.6888508796691895
es	-6.693766117095947
▁now	-6.706151962280273
▁who	-6.730064392089844
▁We	-6.735322952270508
▁here	-6.757986545562744
▁his	-6.763290882110596
▁will	-6.763925075531006
▁by	-6.77561092376709
▁were	-6.781393527984619
▁every	-6.806923866271973
▁kind	-6.819945812225342
▁back	-6.8263397216796875
▁A	-6.831277370452881
▁look	-6.834610939025879
▁been	-6.865054607391357
▁their	-6.865737438201904
▁very	-6.8663811683654785
▁which	-6.8790283203125
▁That	-6.8807878494262695
▁into	-6.887390613555908
▁where	-6.889959335327148
▁has	-6.893083095550537
o	-6.901517868041992
▁way	-6.914261341094971
▁good	-6.918059349060059
▁she	-6.91853141784668
▁other	-6.925738334655762
▁lot	-6.9355573654174805
▁mean	-6.942234992980957
▁work	-6.9438157081604
p	-6.944849967956543
▁e	-6.95320987701416
▁these	-6.957985877990723
▁de	-6.967844486236572
i	-6.985270977020264
▁i	-6.990671634674072
▁yeah	-6.996245384216309
▁over	-6.997771263122559
▁us	-7.0103960037231445
le	-7.013932704925537
▁him	-7.016696929931641
▁talk	-7.034051895141602
ers	-7.039214134216309
▁He	-7.044933319091797
little	-7.05172872543335
▁well	-7.058437347412109
▁pr	-7.066596031188965
▁even	-7.093531608581543
ion	-7.095380783081055
▁could	-7.097424030303955
▁make	-7.106647968292236
▁need	-7.112405300140381
▁those	-7.135005950927734
▁actu	-7.140950679779053
▁said	-7.144470691680908
▁start	-7.147336483001709
▁t	-7.153529167175293
l	-7.156661510467529
▁her	-7.170865535736084
▁con	-7.171987533569336
ation	-7.1775288581848145
▁did	-7.179727077484131
▁also	-7.182616233825684
▁two	-7.185066223144531
▁down	-7.191295623779297
▁much	-7.212818145751953
5	-7.213355541229248
▁They	-7.230929851531982
en	-7.234388828277588
c	-7.24249267578125
▁feel	-7.249005317687988
ting	-7.255661487579346
▁first	-7.2672271728515625
▁C	-7.270016193389893
though	-7.2734270095825195
▁S	-7.279673099517822
▁any	-7.285599231719971
or	-7.297698020935059
on	-7.302798748016357
3	-7.310871124267578
ment	-7.319054126739502
▁let	-7.325043201446533
g	-7.329464435577393
▁take	-7.329853057861328
one	-7.338484764099121
an	-7.363990306854248
il	-7.365907192230225
▁part	-7.373332977294922
rent	-7.378327369689941
hrough	-7.378621578216553
▁play	-7.383774280548096
▁diffe	-7.385295867919922
▁love	-7.386297702789307
▁com	-7.391439437866211
th	-7.3933281898498535
▁show	-7.403681755065918
▁come	-7.410576343536377
▁than	-7.415188312530518
▁bit	-7.420681953430176
▁put	-7.427697658538818
ra	-7.429073333740234
ness	-7.4318695068359375
▁doing	-7.437935829162598
▁This	-7.442959308624268
▁off	-7.451347351074219
ity	-7.457302570343018
▁What	-7.463436603546143
▁life	-7.4657464027404785
w	-7.471033096313477
▁Oh	-7.478610992431641
▁great	-7.481228351593018
ever	-7.486627578735352
u	-7.487160682678223
happen	-7.495415210723877
ic	-7.495570182800293
ar	-7.49574613571167
4	-7.497114658355713
▁day	-7.501342296600342
ro	-7.528869152069092
▁st	-7.530606269836426
▁only	-7.533508777618408
ate	-7.534730434417725
▁didn	-7.55030632019043
▁still	-7.555561542510986
able	-7.555562973022461
▁F	-7.555634498596191
▁P	-7.562912940979004
▁un	-7.567101955413818
▁under	-7.569869041442871
▁No	-7.576674461364746
9	-7.579963684082031
te	-7.58042049407959
▁being	-7.581863880157471
ch	-7.591626167297363
▁Well	-7.5994791984558105
h	-7.601132392883301
ry	-7.60433292388916
▁inter	-7.609300136566162
should	-7.609492301940918
around	-7.611624717712402
▁man	-7.616955757141113
b	-7.618578910827637
ur	-7.6237335205078125
▁new	-7.624754905700684
▁years	-7.627285957336426
el	-7.629648685455322
▁again	-7.630054950714111
k	-7.630280494689941
▁point	-7.633115291595459
▁E	-7.6337409019470215
▁f	-7.637404441833496
▁too	-7.642826557159424
▁give	-7.6462554931640625
▁God	-7.647794723510742
▁help	-7.6489458084106445
▁why	-7.651645660400391
▁tell	-7.654996871948242
▁big	-7.660550117492676
▁There	-7.66077184677124
ent	-7.662092208862305
before	-7.66905403137207
ne	-7.6692681312561035
person	-7.68609094619751
always	-7.697056770324707
▁gonna	-7.708845138549805
ke	-7.714349746704102
body	-7.715152740478516
▁If	-7.717781066894531
▁Be	-7.722033500671387
▁three	-7.726672172546387
la	-7.727085113525391
▁find	-7.7324018478393555
6	-7.739603042602539
▁B	-7.7404375076293945
▁many	-7.741635322570801
▁year	-7.7457594871521
8	-7.748380184173584
▁same	-7.74919319152832
▁most	-7.749341011047363
ta	-7.76569128036499
▁oh	-7.765693664550781
est	-7.769061088562012
▁Now	-7.769343376159668
▁after	-7.7787652015686035
▁last	-7.78427791595459
▁maybe	-7.787981033325195
▁b	-7.79763126373291
▁never	-7.800626277923584
na	-7.806248188018799
▁might	-7.814441680908203
op	-7.823919773101807
it	-7.825128555297852
se	-7.825497150421143
▁end	-7.827725887298584
▁In	-7.8292555809021
li	-7.834815502166748
▁use	-7.842201232910156
x	-7.843822956085205
▁Like	-7.845688343048096
▁long	-7.8490400314331055
▁co	-7.849045753479004
▁stuff	-7.85164213180542
▁dis	-7.856433868408203
ol	-7.860621929168701
▁sure	-7.8607025146484375
ce	-7.86693000793457
obably	-7.869808673858643
▁world	-7.871005535125732
7	-7.8722758293151855
nother	-7.874476909637451
▁does	-7.886646270751953
ri	-7.894267559051514
▁call	-7.897050857543945
▁real	-7.904669761657715
member	-7.9059062004089355
us	-7.914706707000732
▁sort	-7.920995712280273
▁place	-7.921472072601318
lo	-7.925868988037109
age	-7.932684421539307
▁own	-7.936575889587402
▁imp	-7.9380202293396
▁made	-7.9458794593811035
id	-7.946288585662842
is	-7.946658134460449
▁cha	-7.948122501373291
et	-7.9484333992004395
▁next	-7.948547840118408
ence	-7.951374530792236
▁keep	-7.95743989944458
f	-7.95897102355957
▁T	-7.959143161773682
ck	-7.959611892700195
listen	-7.962512493133545
▁g	-7.97217321395874
▁ques	-7.983057498931885
▁doesn	-7.986578941345215
de	-7.993881702423096
tive	-7.995202541351318
▁Okay	-7.995222091674805
▁okay	-8.001017570495605
to	-8.010042190551758
ma	-8.011226654052734
▁y	-8.014019966125488
▁done	-8.016657829284668
▁try	-8.017557144165039
▁game	-8.023670196533203
▁G	-8.030261039733887
better	-8.031174659729004
▁guys	-8.04036808013916
▁di	-8.04699993133545
pretty	-8.05696964263916
▁went	-8.064704895019531
ful	-8.066405296325684
ir	-8.071381568908691
▁watch	-8.072752952575684
number	-8.073490142822266
odcast	-8.074795722961426
out	-8.078509330749512
▁today	-8.080411911010742
▁week	-8.081343650817871
tions	-8.083463668823242
▁ma	-8.090441703796387
ti	-8.09251880645752
▁exper	-8.099031448364258
friend	-8.099273681640625
A	-8.10132122039795
▁She	-8.101981163024902
▁whole	-8.10409927368164
S	-8.111672401428223
ter	-8.114810943603516
stand	-8.123491287231445
▁away	-8.123980522155762
▁hard	-8.126935005187988
course	-8.133652687072754
▁high	-8.150348663330078
ru	-8.150856971740723
▁home	-8.152706146240234
▁All	-8.155635833740234
▁busi	-8.156524658203125
as	-8.157022476196289
▁learn	-8.159526824951172
v	-8.160807609558105
▁able	-8.165253639221191
ia	-8.166909217834473
ary	-8.167830467224121
▁M	-8.171135902404785
▁best	-8.172327041625977
▁team	-8.175614356994629
ble	-8.176185607910156
▁men	-8.177753448486328
▁came	-8.179851531982422
ad	-8.181218147277832
mo	-8.182390213012695
change	-8.187325477600098
ty	-8.18980884552002
ist	-8.191882133483887
▁How	-8.192187309265137
ical	-8.193853378295898
▁r	-8.194097518920898
▁may	-8.199860572814941
having	-8.203511238098145
at	-8.2042818069458
▁money	-8.207857131958008
▁pro	-8.207982063293457
▁o	-8.208535194396973
side	-8.222607612609863
▁uh	-8.22454833984375
▁name	-8.231927871704102
me	-8.232441902160645
▁pre	-8.238127708435059
!	-8.239486694335938
second	-8.239890098571777
nd	-8.243569374084473
ine	-8.244396209716797
▁am	-8.245768547058105
▁De	-8.247952461242676
▁side	-8.249322891235352
▁Do	-8.250293731689453
z	-8.252396583557129
▁guy	-8.256911277770996
ver	-8.256974220275879
▁read	-8.258403778076172
▁"	-8.261567115783691
ite	-8.272871017456055
▁Re	-8.273717880249023
▁la	-8.27470874786377
ience	-8.276155471801758
▁mind	-8.27617073059082
▁idea	-8.277162551879883
▁hear	-8.278149604797363
▁five	-8.278955459594727
▁head	-8.28038215637207
▁four	-8.280485153198242
▁O	-8.282163619995117
▁se	-8.287294387817383
▁um	-8.287642478942871
trying	-8.298399925231934
▁th	-8.29875373840332
▁Let	-8.299449920654297
im	-8.301044464111328
▁mo	-8.30250072479248
▁Yes	-8.306300163269043
▁N	-8.311691284179688
▁few	-8.31614875793457
called	-8.317915916442871
no	-8.319098472595215
gether	-8.32050895690918
▁move	-8.321401596069336
ie	-8.322624206542969
coming	-8.322659492492676
▁car	-8.3236665725708
▁both	-8.325749397277832
ously	-8.327387809753418
ul	-8.33009147644043
▁set	-8.330425262451172
▁story	-8.330855369567871
▁fuck	-8.33165454864502
ction	-8.348227500915527
▁open	-8.348321914672852
▁old	-8.350000381469727
C	-8.350807189941406
▁ask	-8.352201461791992
▁else	-8.354040145874023
ortant	-8.355762481689453
ward	-8.356976509094238
▁power	-8.359997749328613
lieve	-8.362556457519531
ha	-8.36269760131836
▁care	-8.36302375793457
▁turn	-8.363383293151855
▁Right	-8.363404273986816
I	-8.365367889404297
ies	-8.367076873779297
é	-8.367109298706055
▁ever	-8.370315551757812
enough	-8.371919631958008
▁used	-8.375128746032715
ated	-8.375615119934082
▁bring	-8.375762939453125
▁fun	-8.377237319946289
▁bad	-8.378413200378418
▁found	-8.381611824035645
▁each	-8.385348320007324
▁book	-8.388527870178223
co	-8.391936302185059
▁fact	-8.396342277526855
reason	-8.397164344787598
P	-8.400274276733398
▁live	-8.400547981262207
▁per	-8.400988578796387
▁When	-8.401590347290039
▁while	-8.402106285095215
▁Thank	-8.404316902160645
times	-8.404977798461914
um	-8.405458450317383
ton	-8.408987998962402
▁D	-8.411992073059082
▁R	-8.41552448272705
▁creat	-8.420564651489258
ho	-8.420775413513184
▁d	-8.422122955322266
▁defin	-8.422486305236816
▁line	-8.425642967224121
▁guess	-8.430755615234375
▁quite	-8.432291030883789
pe	-8.433984756469727
man	-8.434449195861816
▁build	-8.435030937194824
▁en	-8.436271667480469
rself	-8.441118240356445
pisode	-8.443821907043457
moment	-8.44384479522705
▁yes	-8.444398880004883
▁basic	-8.452391624450684
▁video	-8.45334529876709
▁night	-8.453591346740723
couple	-8.455424308776855
making	-8.455667495727539
▁month	-8.456650733947754
▁run	-8.460701942443848
lu	-8.465465545654297
lready	-8.46560001373291
▁To	-8.465655326843262
da	-8.466363906860352
▁goes	-8.466663360595703
D	-8.466976165771484
▁For	-8.467130661010742
...	-8.469169616699219
ga	-8.469924926757812
▁ex	-8.470888137817383
▁po	-8.470900535583496
▁says	-8.471372604370117
▁free	-8.472845077514648
ut	-8.474469184875488
ance	-8.474730491638184
▁job	-8.4752836227417
ng	-8.477029800415039
ach	-8.480815887451172
▁seen	-8.481229782104492
و	-8.481822967529297
up	-8.482392311096191
un	-8.482681274414062
tween	-8.486188888549805
▁won	-8.486241340637207
ant	-8.488265037536621
▁such	-8.488940238952637
▁hope	-8.489032745361328
▁comes	-8.489861488342285
▁cool	-8.490562438964844
▁house	-8.490806579589844
tional	-8.492448806762695
▁pass	-8.492779731750488
▁water	-8.497396469116211
▁walk	-8.499316215515137
▁light	-8.502432823181152
esting	-8.502674102783203
▁Ma	-8.503865242004395
▁h	-8.504929542541504
ations	-8.507333755493164
ni	-8.50997257232666
▁pa	-8.511340141296387
minute	-8.51488208770752
▁bo	-8.515910148620605
▁times	-8.516918182373047
les	-8.516949653625488
ر	-8.518157005310059
▁case	-8.520344734191895
▁far	-8.522486686706543
▁child	-8.523870468139648
ca	-8.526588439941406
▁bu	-8.52804183959961
▁sound	-8.529618263244629
ard	-8.531852722167969
▁wasn	-8.532976150512695
▁que	-8.539838790893555
day	-8.540030479431152
system	-8.5426664352417
▁hand	-8.54411506652832
vi	-8.545309066772461
ish	-8.546232223510742
ci	-8.55002498626709
▁speci	-8.551002502441406
T	-8.552409172058105
school	-8.553696632385254
son	-8.55629825592041
▁gener	-8.562760353088379
▁once	-8.564325332641602
▁w	-8.564567565917969
▁small	-8.565271377563477
am	-8.56930923461914
▁K	-8.570649147033691
ture	-8.576712608337402
M	-8.577024459838867
▁trans	-8.579708099365234
▁left	-8.582918167114258
itely	-8.583322525024414
all	-8.58346939086914
ag	-8.58770751953125
family	-8.587883949279785
▁V	-8.589518547058105
ous	-8.592347145080566
om	-8.593643188476562
▁movie	-8.593978881835938
ice	-8.594159126281738
ions	-8.594797134399414
م	-8.595993041992188
▁anyth	-8.597857475280762
ian	-8.59841251373291
follow	-8.59969711303711
▁top	-8.599716186523438
▁pay	-8.600637435913086
be	-8.604819297790527
▁nice	-8.607076644897461
%	-8.60915756225586
▁thank	-8.614678382873535
▁saw	-8.616087913513184
▁cur	-8.617782592773438
he	-8.619572639465332
ge	-8.619688034057617
▁ba	-8.620129585266113
▁half	-8.621623039245605
▁lead	-8.622058868408203
roblem	-8.622466087341309
▁La	-8.62397289276123
▁rec	-8.632270812988281
em	-8.63492202758789
va	-8.63544750213623
dy	-8.635499000549316
bility	-8.638021469116211
▁ca	-8.639488220214844
ten	-8.642119407653809
▁exact	-8.64391040802002
di	-8.64551830291748
▁obvi	-8.648545265197754
ey	-8.64885425567627
▁deal	-8.64913272857666
ssion	-8.649358749389648
▁pick	-8.653026580810547
▁sub	-8.655430793762207
xample	-8.658014297485352
become	-8.658555030822754
▁na	-8.659600257873535
▁My	-8.659753799438477
market	-8.660055160522461
che	-8.661465644836426
where	-8.662162780761719
tor	-8.662221908569336
self	-8.663838386535645
▁hit	-8.663921356201172
▁posi	-8.663960456848145
myself	-8.66524600982666
ي	-8.665751457214355
com	-8.668530464172363
▁six	-8.668973922729492
▁stand	-8.670042991638184
▁check	-8.670136451721191
▁U	-8.672911643981934
▁Just	-8.673397064208984
▁close	-8.673858642578125
▁speak	-8.674603462219238
▁state	-8.675527572631836
▁fan	-8.677284240722656
▁wait	-8.681979179382324
▁break	-8.682747840881348
ster	-8.683348655700684
ive	-8.68435001373291
ren	-8.685545921325684
ka	-8.685918807983398
▁W	-8.68787670135498
R	-8.688252449035645
▁music	-8.691445350646973
▁super	-8.69190788269043
▁level	-8.69225788116455
almost	-8.69260311126709
spect	-8.696332931518555
▁space	-8.697981834411621
tic	-8.69830322265625
ak	-8.702743530273438
▁sense	-8.704197883605957
▁grow	-8.704347610473633
▁As	-8.704444885253906
▁n	-8.706270217895508
ially	-8.706563949584961
▁took	-8.707412719726562
▁cons	-8.707503318786621
B	-8.709356307983398
selves	-8.713006973266602
season	-8.713068008422852
ig	-8.713550567626953
ook	-8.713750839233398
pa	-8.715437889099121
▁L	-8.71619701385498
utely	-8.716267585754395
▁k	-8.718250274658203
ments	-8.726122856140137
os	-8.727188110351562
▁Jesus	-8.728135108947754
▁days	-8.72931957244873
▁Ro	-8.732542037963867
▁ago	-8.73293685913086
land	-8.732978820800781
▁heart	-8.735259056091309
د	-8.736091613769531
▁Chris	-8.7373628616333
▁quick	-8.737496376037598
cu	-8.737568855285645
matter	-8.738037109375
▁face	-8.738126754760742
ted	-8.738473892211914
▁Some	-8.738590240478516
do	-8.738718032836914
und	-8.742030143737793
▁mi	-8.74361515045166
▁true	-8.750214576721191
▁stay	-8.751595497131348
▁Pa	-8.755435943603516
▁hold	-8.755465507507324
O	-8.75627326965332
▁type	-8.756329536437988
▁tr	-8.757129669189453
less	-8.757354736328125
▁H	-8.758471488952637
line	-8.763260841369629
upport	-8.765844345092773
gainst	-8.766072273254395
▁least	-8.7665433883667
▁word	-8.767441749572754
answer	-8.767786979675293
j	-8.767943382263184
▁step	-8.768478393554688
▁heard	-8.768655776977539
▁hi	-8.769448280334473
ling	-8.769691467285156
mi	-8.770326614379883
▁sa	-8.77038860321045
either	-8.771315574645996
▁buy	-8.77165699005127
▁rest	-8.77206802368164
▁St	-8.774239540100098
▁comp	-8.774499893188477
fic	-8.775188446044922
ا	-8.77776050567627
ت	-8.77912712097168
▁makes	-8.779967308044434
ically	-8.781737327575684
ang	-8.782662391662598
produc	-8.783069610595703
E	-8.784475326538086
▁vi	-8.78581428527832
taking	-8.788702011108398
form	-8.792396545410156
ن	-8.79869270324707
▁since	-8.799327850341797
ot	-8.79963493347168
▁count	-8.800046920776367
▁shit	-8.80013370513916
sh	-8.80069637298584
resent	-8.800989151000977
▁until	-8.802389144897461
conver	-8.80280590057373
▁young	-8.809401512145996
▁Ha	-8.809650421142578
▁kids	-8.80980110168457
▁Or	-8.810272216796875
▁New	-8.814461708068848
▁leave	-8.81515121459961
ground	-8.815988540649414
▁miss	-8.817492485046387
▁hey	-8.81812858581543
▁l	-8.820104598999023
▁told	-8.82188606262207
▁song	-8.82461929321289
▁means	-8.8248291015625
ure	-8.82526683807373
▁ho	-8.825498580932617
▁full	-8.827272415161133
▁cut	-8.828385353088379
▁using	-8.828414916992188
▁sc	-8.828606605529785
▁body	-8.829814910888672
▁group	-8.830730438232422
▁Go	-8.831496238708496
▁absol	-8.831792831420898
▁room	-8.832965850830078
onship	-8.834259986877441
▁human	-8.837621688842773
▁sur	-8.839649200439453
▁allow	-8.840558052062988
red	-8.8445463180542
▁yet	-8.848400115966797
lar	-8.849067687988281
ries	-8.849857330322266
▁One	-8.84987735748291
au	-8.85007381439209
▁Mo	-8.8519287109375
search	-8.853538513183594
е	-8.85414981842041
▁sh	-8.854841232299805
ه	-8.854894638061523
▁Le	-8.856083869934082
ل	-8.857172012329102
hy	-8.858010292053223
▁air	-8.86134147644043
vo	-8.861430168151855
▁Ba	-8.864173889160156
▁area	-8.865365982055664
ba	-8.865779876708984
▁stop	-8.866847038269043
ow	-8.867715835571289
▁clear	-8.868525505065918
▁wrong	-8.868855476379395
mazing	-8.870097160339355
▁lo	-8.871426582336426
fully	-8.873072624206543
per	-8.873246192932129
go	-8.874667167663574
wa	-8.876036643981934
▁possi	-8.876326560974121
ی	-8.877270698547363
tro	-8.879477500915527
▁past	-8.884129524230957
▁da	-8.886237144470215
tory	-8.887429237365723
expect	-8.892228126525879
and	-8.89306354522705
ition	-8.893683433532715
▁wheth	-8.893691062927246
▁issue	-8.894025802612305
▁writ	-8.89453125
fi	-8.894998550415039
▁Ja	-8.895549774169922
▁piece	-8.896522521972656
▁ha	-8.896896362304688
ah	-8.899083137512207
wi	-8.899349212646484
▁order	-8.901896476745605
▁espec	-8.904784202575684
ner	-8.904807090759277
relati	-8.90532112121582
▁knew	-8.9068603515625
▁isn	-8.910194396972656
▁focus	-8.910478591918945
tain	-8.913580894470215
▁test	-8.914241790771484
▁bi	-8.917304039001465
▁Ho	-8.918100357055664
gu	-8.918365478515625
record	-8.921841621398926
▁yn	-8.925897598266602
▁food	-8.925972938537598
▁later	-8.928470611572266
ap	-8.929786682128906
▁$	-8.930574417114258
ompany	-8.930594444274902
▁girl	-8.931021690368652
▁must	-8.932236671447754
▁excit	-8.932639122009277
gg	-8.933134078979492
▁Ca	-8.933996200561523
od	-8.934683799743652
▁Bo	-8.934969902038574
▁plan	-8.935236930847168
▁meet	-8.93568229675293
▁sp	-8.936230659484863
▁Se	-8.94008731842041
▁succe	-8.94096851348877
▁less	-8.94432258605957
ize	-8.944500923156738
icular	-8.945056915283203
row	-8.947490692138672
ld	-8.947938919067383
▁teach	-8.94893741607666
ip	-8.954086303710938
ontrol	-8.95534610748291
bo	-8.95704174041748
▁star	-8.95771598815918
▁share	-8.95938491821289
light	-8.961296081542969
ball	-8.96158218383789
mation	-8.96166706085205
▁rep	-8.962485313415527
▁value	-8.966387748718262
▁train	-8.97018051147461
sive	-8.970291137695312
rence	-8.970890998840332
qui	-8.97185230255127
▁techn	-8.972455978393555
▁certa	-8.9733247756958
▁Then	-8.974882125854492
ities	-8.975265502929688
po	-8.976327896118164
way	-8.976357460021973
▁Me	-8.977892875671387
▁short	-8.978824615478516
▁main	-8.978894233703613
▁fall	-8.982150077819824
wards	-8.9824857711792
▁Sa	-8.983622550964355
tra	-8.984106063842773
L	-8.985461235046387
▁often	-8.985709190368652
bi	-8.98623275756836
▁class	-8.986233711242676
▁Li	-8.986499786376953
ger	-8.988371849060059
ep	-8.989365577697754
▁win	-8.989603996276855
iv	-8.990174293518066
▁mu	-8.992423057556152
▁along	-8.994239807128906
å	-8.99525260925293
▁OK	-8.996599197387695
▁front	-8.998224258422852
during	-8.999367713928223
▁du	-8.999914169311523
ating	-9.000185012817383
led	-9.00027847290039
ism	-9.000290870666504
▁easy	-9.001694679260254
ator	-9.002311706542969
▁enjoy	-9.004293441772461
ber	-9.004940032958984
▁haven	-9.006134033203125
▁situa	-9.007049560546875
▁black	-9.00743293762207
energy	-9.007623672485352
▁det	-9.010364532470703
▁women	-9.01065444946289
N	-9.011513710021973
▁Don	-9.0160551071167
parent	-9.017770767211914
▁Why	-9.020317077636719
▁fire	-9.020331382751465
der	-9.021602630615234
▁le	-9.024235725402832
▁fight	-9.024870872497559
▁chang	-9.025651931762695
ement	-9.026383399963379
can	-9.027878761291504
▁foot	-9.029459953308105
▁Na	-9.030130386352539
▁Ra	-9.031861305236816
create	-9.032488822937012
▁add	-9.033122062683105
ron	-9.034554481506348
F	-9.03532600402832
stead	-9.035615921020508
▁des	-9.036656379699707
▁morn	-9.0381498336792
▁Co	-9.040934562683105
ab	-9.04224681854248
▁eat	-9.042732238769531
▁felt	-9.042911529541016
▁runn	-9.044498443603516
we	-9.044965744018555
ning	-9.048744201660156
▁post	-9.04956340789795
pi	-9.050450325012207
;	-9.053049087524414
ny	-9.05362319946289
▁Lord	-9.05436897277832
racter	-9.055581092834473
behind	-9.060038566589355
▁Can	-9.06406307220459
▁bea	-9.064136505126953
▁favor	-9.064603805541992
▁ready	-9.066211700439453
ee	-9.067480087280273
single	-9.067906379699707
▁seven	-9.075495719909668
▁war	-9.076934814453125
health	-9.077648162841797
social	-9.079365730285645
▁happy	-9.080602645874023
io	-9.080713272094727
▁liter	-9.081754684448242
▁bar	-9.082159996032715
across	-9.085174560546875
action	-9.08549690246582
▁Not	-9.086748123168945
▁mill	-9.089664459228516
▁gone	-9.091009140014648
▁huge	-9.091429710388184
mp	-9.092206954956055
▁early	-9.093128204345703
ple	-9.093631744384766
hu	-9.095439910888672
▁Every	-9.098529815673828
tract	-9.099678039550781
▁die	-9.099730491638184
rd	-9.101494789123535
▁infor	-9.102574348449707
ration	-9.102784156799316
▁final	-9.103464126586914
▁Da	-9.10403060913086
ric	-9.107940673828125
▁direc	-9.109135627746582
▁gra	-9.109183311462402
fo	-9.109792709350586
▁Al	-9.11117172241211
▁film	-9.112849235534668
fe	-9.113022804260254
▁large	-9.115986824035645
gen	-9.119293212890625
strong	-9.119502067565918
▁disc	-9.120002746582031
▁fa	-9.121415138244629
▁boy	-9.122583389282227
▁pull	-9.12259292602539
ology	-9.124296188354492
utiful	-9.12459945678711
▁va	-9.124744415283203
▁looks	-9.127294540405273
sta	-9.127840042114258
rocess	-9.132211685180664
▁Y	-9.132549285888672
nation	-9.132739067077637
figure	-9.139142990112305
honest	-9.140530586242676
▁form	-9.140780448913574
tri	-9.142746925354004
▁Wa	-9.143213272094727
ع	-9.143847465515137
▁fine	-9.145126342773438
▁door	-9.147528648376465
▁cover	-9.147950172424316
ious	-9.150182723999023
▁land	-9.151371955871582
▁words	-9.151972770690918
▁list	-9.152130126953125
▁sign	-9.153017044067383
ris	-9.154001235961914
gi	-9.154319763183594
▁oppor	-9.155195236206055
▁write	-9.155582427978516
rate	-9.158084869384766
living	-9.159357070922852
▁crazy	-9.159431457519531
▁seems	-9.16001033782959
▁John	-9.160340309143066
time	-9.16416072845459
▁terms	-9.164505004882812
val	-9.166070938110352
ervice	-9.166971206665039
▁appro	-9.168490409851074
port	-9.170356750488281
erfect	-9.170977592468262
▁Di	-9.174539566040039
▁har	-9.176504135131836
▁plus	-9.177936553955078
▁ال	-9.178487777709961
giving	-9.178792953491211
▁Maybe	-9.181262969970703
ors	-9.183570861816406
night	-9.184505462646484
▁push	-9.186213493347168
▁join	-9.18624210357666
▁Mar	-9.186954498291016
G	-9.187036514282227
con	-9.187541961669922
entire	-9.189494132995605
munity	-9.190133094787598
▁sit	-9.190606117248535
▁reach	-9.190654754638672
▁elect	-9.191340446472168
▁data	-9.192991256713867
▁agree	-9.19411849975586
oo	-9.198872566223145
▁asked	-9.19937515258789
▁On	-9.201492309570312
▁send	-9.20433235168457
ide	-9.204376220703125
future	-9.204535484313965
▁sell	-9.205377578735352
ft	-9.206799507141113
jo	-9.207775115966797
▁ni	-9.207779884338379
ctor	-9.209047317504883
ff	-9.209071159362793
depend	-9.212953567504883
▁self	-9.213046073913574
▁ac	-9.214652061462402
ub	-9.215879440307617
▁phone	-9.216513633728027
H	-9.21670913696289
king	-9.217204093933105
س	-9.217345237731934
ou	-9.21832275390625
amount	-9.21908950805664
▁ja	-9.220247268676758
▁fin	-9.221041679382324
bb	-9.222188949584961
end	-9.2229585647583
▁coach	-9.223636627197266
▁kid	-9.224626541137695
ertain	-9.224735260009766
letely	-9.229743957519531
▁ball	-9.233514785766602
moving	-9.233748435974121
▁hours	-9.234230041503906
▁manag	-9.234424591064453
▁spend	-9.23469066619873
▁usual	-9.234749794006348
▁kill	-9.23589038848877
ick	-9.236687660217285
▁su	-9.236882209777832
▁touch	-9.237579345703125
result	-9.238622665405273
ä	-9.23870849609375
mb	-9.238740921020508
▁diff	-9.240494728088379
▁pictu	-9.240958213806152
mother	-9.241060256958008
ial	-9.241181373596191
▁gen	-9.243279457092285
▁arm	-9.243325233459473
▁media	-9.2437162399292
ear	-9.243833541870117
anyway	-9.24473762512207
▁At	-9.244958877563477
▁lost	-9.245104789733887
▁je	-9.245494842529297
tinue	-9.245914459228516
▁weird	-9.246435165405273
source	-9.24682331085205
▁Je	-9.247194290161133
и	-9.24785327911377
▁baby	-9.247946739196777
ell	-9.248261451721191
old	-9.25293254852295
▁key	-9.253212928771973
▁multi	-9.253715515136719
с	-9.255903244018555
▁deep	-9.25597095489502
▁equal	-9.258957862854004
▁given	-9.2611083984375
▁white	-9.261425971984863
а	-9.261722564697266
▁pe	-9.262528419494629
gram	-9.265002250671387
▁Um	-9.26501750946045
men	-9.265767097473145
о	-9.265829086303711
emp	-9.266592979431152
▁gave	-9.26683521270752
ك	-9.267192840576172
▁low	-9.267684936523438
ph	-9.268341064453125
▁fast	-9.26915168762207
wn	-9.269535064697266
▁Man	-9.269639015197754
▁eight	-9.26994514465332
▁ahead	-9.270735740661621
▁eyes	-9.27210521697998
▁journ	-9.272489547729492
י	-9.27332592010498
ler	-9.273736000061035
ient	-9.274319648742676
ise	-9.274370193481445
qu	-9.274736404418945
▁law	-9.27739143371582
▁Lo	-9.277520179748535
▁Ameri	-9.279704093933105
ized	-9.280120849609375
▁funny	-9.283392906188965
▁event	-9.28357219696045
our	-9.284185409545898
▁Here	-9.284661293029785
wonder	-9.28836441040039
▁app	-9.288464546203613
▁offer	-9.289196014404297
▁An	-9.289769172668457
rogram	-9.291475296020508
▁Hi	-9.291528701782227
▁Hey	-9.291892051696777
."	-9.292503356933594
▁art	-9.29272747039795
hi	-9.29306697845459
cho	-9.29344367980957
▁v	-9.293703079223633
vision	-9.293916702270508
design	-9.295731544494629
▁takes	-9.297224044799805
▁Ar	-9.29771614074707
▁Po	-9.298718452453613
▁woman	-9.300501823425293
▁Mi	-9.300869941711426
▁Who	-9.303844451904297
lock	-9.306121826171875
tioned	-9.30648422241211
á	-9.306832313537598
▁games	-9.308627128601074
ac	-9.309030532836914
▁throw	-9.309338569641113
nder	-9.309569358825684
view	-9.310959815979004
▁ju	-9.311022758483887
rought	-9.313830375671387
og	-9.314338684082031
ud	-9.314417839050293
▁sent	-9.3158597946167
icult	-9.316699981689453
▁third	-9.320051193237305
public	-9.320467948913574
▁Sp	-9.32242202758789
▁brain	-9.322565078735352
▁decis	-9.324774742126465
▁hundr	-9.326744079589844
▁fit	-9.327546119689941
dollar	-9.328387260437012
▁neces	-9.330474853515625
▁voice	-9.330772399902344
▁J	-9.331167221069336
ify	-9.334321975708008
▁Con	-9.336448669433594
ade	-9.340838432312012
▁soon	-9.341312408447266
▁Un	-9.341906547546387
▁cap	-9.341944694519043
lin	-9.343247413635254
father	-9.34326457977295
tter	-9.34344482421875
lan	-9.343685150146484
wesome	-9.343770980834961
uck	-9.34377670288086
▁dog	-9.344061851501465
by	-9.345102310180664
ob	-9.345699310302734
ب	-9.346378326416016
▁ten	-9.34676456451416
▁si	-9.346918106079102
den	-9.347368240356445
▁track	-9.349933624267578
ze	-9.35116195678711
▁chi	-9.351595878601074
appear	-9.352456092834473
chance	-9.35256290435791
llenge	-9.35284423828125
▁shot	-9.355164527893066
▁sorry	-9.357897758483887
tories	-9.358085632324219
▁nega	-9.360742568969727
▁Te	-9.3621244430542
▁para	-9.362360000610352
▁god	-9.363547325134277
▁view	-9.364309310913086
rather	-9.365878105163574
▁Mr	-9.366072654724121
ו	-9.367229461669922
▁drink	-9.368313789367676
▁hour	-9.369148254394531
ugh	-9.370623588562012
▁These	-9.370634078979492
lic	-9.371176719665527
▁hot	-9.371552467346191
late	-9.373501777648926
▁incre	-9.37368392944336
▁serv	-9.374038696289062
please	-9.376060485839844
terest	-9.379517555236816
▁field	-9.380144119262695
ently	-9.380892753601074
▁dark	-9.381349563598633
▁relat	-9.381586074829102
stance	-9.386783599853516
ai	-9.388028144836426
ya	-9.388672828674316
V	-9.388874053955078
▁Ka	-9.389886856079102
custom	-9.39107608795166
church	-9.392374038696289
▁expla	-9.392638206481934
▁Ju	-9.392658233642578
▁seem	-9.392862319946289
ousand	-9.393081665039062
ency	-9.393359184265137
finish	-9.393660545349121
▁pi	-9.394664764404297
▁ways	-9.395894050598145
ح	-9.39594554901123
▁exist	-9.39599323272705
nc	-9.397337913513184
▁dead	-9.39737606048584
▁Dr	-9.398378372192383
client	-9.398672103881836
▁Z	-9.399008750915527
sider	-9.400711059570312
▁trust	-9.401521682739258
gest	-9.401556015014648
gan	-9.40227222442627
han	-9.404308319091797
W	-9.4043550491333
▁Are	-9.406368255615234
ace	-9.408614158630371
graph	-9.410457611083984
travel	-9.410662651062012
invest	-9.4140043258667
▁news	-9.41524600982666
ki	-9.4153413772583
▁fear	-9.415443420410156
nk	-9.415628433227539
imilar	-9.415858268737793
▁emo	-9.41601848602295
suppos	-9.417911529541016
cla	-9.418488502502441
iz	-9.419187545776367
▁flow	-9.419829368591309
bu	-9.420503616333008
load	-9.420577049255371
▁based	-9.420777320861816
▁weeks	-9.421319007873535
lf	-9.423846244812012
▁drive	-9.425610542297363
roject	-9.426355361938477
▁brand	-9.427434921264648
dom	-9.427870750427246
magine	-9.428024291992188
▁link	-9.429953575134277
sation	-9.430054664611816
cast	-9.430257797241211
▁worth	-9.430852890014648
▁sleep	-9.433205604553223
gar	-9.434643745422363
simple	-9.436808586120605
report	-9.437264442443848
▁force	-9.438314437866211
pp	-9.438736915588379
▁mom	-9.438970565795898
ccount	-9.439584732055664
▁lives	-9.44177532196045
ley	-9.442485809326172
▁known	-9.443177223205566
ountry	-9.443464279174805
bsite	-9.44507122039795
▁major	-9.4465913772583
в	-9.447555541992188
▁roll	-9.447762489318848
▁jump	-9.447834014892578
mber	-9.45079231262207
▁red	-9.453396797180176
▁city	-9.456280708312988
set	-9.45693588256836
rk	-9.457257270812988
mental	-9.457337379455566
av	-9.460675239562988
▁death	-9.460692405700684
ship	-9.461281776428223
▁hands	-9.461979866027832
ug	-9.462041854858398
middle	-9.462311744689941
▁sun	-9.464760780334473
▁base	-9.465078353881836
inside	-9.465493202209473
▁road	-9.466241836547852
velop	-9.466629981994629
ight	-9.46700382232666
▁ا	-9.467375755310059
lly	-9.467445373535156
í	-9.4685640335083
▁rock	-9.468690872192383
▁compa	-9.469518661499023
▁Vi	-9.469911575317383
▁needs	-9.47014045715332
wo	-9.471970558166504
▁por	-9.473296165466309
▁dream	-9.473833084106445
ack	-9.473909378051758
▁works	-9.473946571350098
▁With	-9.475066184997559
▁Where	-9.47530746459961
▁Jo	-9.476038932800293
▁begin	-9.476088523864746
ential	-9.477075576782227
▁rule	-9.477331161499023
▁compe	-9.479007720947266
▁Look	-9.479084968566895
▁Br	-9.479087829589844
▁cost	-9.480192184448242
▁board	-9.480210304260254
▁goal	-9.480402946472168
▁Ta	-9.48093318939209
ker	-9.48359203338623
ssage	-9.484257698059082
tunity	-9.484946250915527
▁taken	-9.487295150756836
▁box	-9.48802661895752
ative	-9.48840618133545
▁match	-9.489437103271484
if	-9.490029335021973
lcome	-9.490504264831543
▁sin	-9.4909029006958
amp	-9.491107940673828
▁State	-9.491924285888672
▁extra	-9.492724418640137
▁draw	-9.493718147277832
nch	-9.494184494018555
fu	-9.498034477233887
scribe	-9.499979972839355
▁proce	-9.500555992126465
▁clean	-9.500929832458496
sident	-9.501543045043945
▁lose	-9.502408981323242
▁card	-9.503335952758789
tially	-9.504414558410645
ق	-9.50486946105957
breath	-9.505594253540039
▁Ne	-9.506277084350586
▁Har	-9.506720542907715
▁tried	-9.507039070129395
wy	-9.508370399475098
▁decid	-9.508963584899902
▁color	-9.509623527526855
▁upon	-9.510516166687012
▁mar	-9.512139320373535
wood	-9.512967109680176
▁bill	-9.513838768005371
▁vers	-9.513875007629395
bl	-9.513968467712402
▁table	-9.514453887939453
▁dad	-9.514573097229004
ality	-9.515373229980469
du	-9.515666961669922
▁price	-9.516672134399414
qua	-9.51689338684082
▁qual	-9.517621994018555
series	-9.51822566986084
▁pain	-9.51880931854248
impact	-9.520054817199707
▁opera	-9.52074909210205
fer	-9.52340030670166
▁broth	-9.525179862976074
▁sitt	-9.525618553161621
▁nu	-9.52674674987793
▁enter	-9.526768684387207
▁stick	-9.527190208435059
▁act	-9.52748966217041
bor	-9.528085708618164
▁conf	-9.529946327209473
▁Car	-9.530797004699707
ium	-9.530998229980469
dic	-9.531200408935547
anyone	-9.531356811523438
▁Bu	-9.532878875732422
▁terri	-9.53305435180664
▁treat	-9.533828735351562
common	-9.534955978393555
▁Did	-9.535140991210938
ercent	-9.535236358642578
▁wife	-9.535518646240234
▁ب	-9.53854751586914
▁spot	-9.539159774780273
ute	-9.540247917175293
▁blood	-9.540822982788086
▁polit	-9.542089462280273
▁natur	-9.543805122375488
▁atten	-9.544745445251465
raight	-9.54609203338623
tu	-9.546097755432129
т	-9.54770278930664
▁bunch	-9.547865867614746
nment	-9.547986030578613
,"	-9.548636436462402
▁cultu	-9.549612045288086
▁truth	-9.550116539001465
inly	-9.55191707611084
▁round	-9.552741050720215
▁wall	-9.554384231567383
▁beat	-9.555932998657227
▁safe	-9.556070327758789
▁store	-9.557929039001465
onnect	-9.55828857421875
▁email	-9.558768272399902
ف	-9.56057071685791
▁den	-9.56119441986084
▁gr	-9.561676979064941
ray	-9.563387870788574
planet	-9.565610885620117
ה	-9.565816879272461
actice	-9.56598949432373
▁stage	-9.569098472595215
ledge	-9.570317268371582
ran	-9.571011543273926
▁late	-9.573040962219238
ش	-9.5733003616333
▁Du	-9.574204444885254
▁cont	-9.576539993286133
rage	-9.577510833740234
gy	-9.577733039855957
que	-9.579856872558594
pping	-9.580473899841309
ja	-9.58115291595459
her	-9.581399917602539
ham	-9.581884384155273
▁wear	-9.583069801330566
degree	-9.583757400512695
▁role	-9.584003448486328
▁gover	-9.584391593933105
▁prote	-9.586602210998535
▁pot	-9.587722778320312
orrect	-9.587873458862305
▁scene	-9.588967323303223
▁Ki	-9.589038848876953
return	-9.590897560119629
▁Mu	-9.591329574584961
▁plant	-9.591662406921387
len	-9.592211723327637
▁nine	-9.592400550842285
▁shoot	-9.59289836883545
▁study	-9.593313217163086
nymore	-9.593546867370605
▁band	-9.59363079071045
cle	-9.59450626373291
▁son	-9.594846725463867
tually	-9.595165252685547
oc	-9.596518516540527
ink	-9.597445487976074
▁feed	-9.59815502166748
▁rate	-9.59876823425293
▁faith	-9.600125312805176
▁cell	-9.60013198852539
ec	-9.600286483764648
▁earth	-9.60041332244873
volved	-9.601034164428711
ory	-9.601201057434082
▁pri	-9.601423263549805
ral	-9.602245330810547
▁wa	-9.603468894958496
period	-9.60350513458252
▁paper	-9.604124069213867
▁hole	-9.604816436767578
office	-9.60515022277832
▁audi	-9.605591773986816
▁His	-9.605901718139648
urpose	-9.606229782104492
▁age	-9.60710620880127
▁earli	-9.607839584350586
▁wish	-9.608660697937012
▁limit	-9.608819007873535
eg	-9.61091136932373
▁Of	-9.611836433410645
normal	-9.611957550048828
▁conne	-9.612325668334961
cious	-9.612701416015625
dustry	-9.613129615783691
▁page	-9.613688468933105
panies	-9.615263938903809
zz	-9.615419387817383
▁dude	-9.61575984954834
▁fair	-9.616605758666992
center	-9.618453979492188
back	-9.618600845336914
▁non	-9.61951732635498
fa	-9.620133399963379
istic	-9.620843887329102
engine	-9.621585845947266
▁local	-9.621711730957031
became	-9.621801376342773
cannot	-9.62216567993164
direct	-9.624130249023438
over	-9.624938011169434
▁tree	-9.625069618225098
▁mix	-9.625258445739746
van	-9.625259399414062
▁yo	-9.626197814941406
▁model	-9.626543045043945
wise	-9.627309799194336
ex	-9.628133773803711
▁quart	-9.629525184631348
room	-9.630119323730469
access	-9.630171775817871
▁aren	-9.63112735748291
▁Your	-9.631990432739258
ile	-9.63232421875
м	-9.633732795715332
▁cy	-9.63390064239502
▁slow	-9.63414192199707
ective	-9.635130882263184
tance	-9.63584041595459
▁ident	-9.636628150939941
low	-9.637642860412598
▁Engl	-9.638734817504883
▁li	-9.639229774475098
▁feet	-9.63999080657959
the	-9.642289161682129
▁encou	-9.642325401306152
▁Sha	-9.642536163330078
forget	-9.642633438110352
my	-9.644803047180176
ko	-9.646860122680664
▁pray	-9.647466659545898
▁burn	-9.649913787841797
ina	-9.650321960449219
▁Ga	-9.651046752929688
couldn	-9.652205467224121
ek	-9.653759002685547
▁drop	-9.65405559539795
▁Even	-9.655414581298828
▁War	-9.6554594039917
ef	-9.65590763092041
▁path	-9.656214714050293
▁hang	-9.656817436218262
▁Cha	-9.656923294067383
ay	-9.65809440612793
▁quote	-9.659514427185059
▁hell	-9.659610748291016
stress	-9.6611967086792
▁Th	-9.66137409210205
crease	-9.661754608154297
rn	-9.66263484954834
rticle	-9.663130760192871
bottom	-9.663515090942383
effect	-9.663614273071289
▁Hu	-9.66423511505127
▁marri	-9.664422988891602
▁ext	-9.664436340332031
▁hate	-9.664773941040039
ier	-9.666439056396484
▁alone	-9.666513442993164
▁mine	-9.667889595031738
ested	-9.66866683959961
▁Good	-9.669190406799316
alize	-9.669462203979492
▁Pe	-9.670099258422852
▁US	-9.671167373657227
▁catch	-9.671882629394531
sudden	-9.672216415405273
choice	-9.672410011291504
tar	-9.673001289367676
▁X	-9.673397064208984
▁explo	-9.673413276672363
▁built	-9.675474166870117
attack	-9.677810668945312
▁risk	-9.677962303161621
▁cross	-9.677979469299316
ک	-9.67825698852539
ju	-9.678667068481445
lution	-9.680370330810547
▁eye	-9.680672645568848
▁gun	-9.680837631225586
ash	-9.6810941696167
▁Si	-9.681462287902832
everal	-9.681543350219727
▁pen	-9.683480262756348
▁wanna	-9.683747291564941
lor	-9.684992790222168
U	-9.68535327911377
beginn	-9.685479164123535
▁grand	-9.68637466430664
▁phys	-9.68679141998291
▁photo	-9.686860084533691
mit	-9.688801765441895
ox	-9.689840316772461
▁thro	-9.69028091430664
ather	-9.691633224487305
▁educa	-9.692315101623535
tally	-9.692428588867188
▁sport	-9.694089889526367
д	-9.695698738098145
▁El	-9.696224212646484
▁avail	-9.696478843688965
Christ	-9.698997497558594
▁king	-9.700275421142578
ó	-9.701098442077637
idual	-9.701898574829102
▁refer	-9.702362060546875
▁near	-9.702634811401367
struct	-9.703474044799805
▁block	-9.703927040100098
eth	-9.70551872253418
▁size	-9.706526756286621
ado	-9.707244873046875
▁tu	-9.70842456817627
▁blue	-9.709330558776855
ians	-9.70950984954834
▁hair	-9.712701797485352
▁Wow	-9.71353530883789
wouldn	-9.713675498962402
turned	-9.713834762573242
ants	-9.714234352111816
▁books	-9.715872764587402
л	-9.716533660888672
kan	-9.717462539672852
▁envir	-9.717784881591797
terial	-9.718120574951172
▁loved	-9.718969345092773
▁York	-9.719944953918457
▁town	-9.720175743103027
▁fix	-9.72035026550293
▁skill	-9.721322059631348
ctions	-9.72209644317627
▁party	-9.722453117370605
▁Faceb	-9.723325729370117
▁indiv	-9.723444938659668
▁tend	-9.723479270935059
tunate	-9.72500228881836
tual	-9.727933883666992
▁visit	-9.72862720489502
א	-9.73007583618164
▁hurt	-9.73007583618164
rently	-9.73192310333252
▁plat	-9.732077598571777
ana	-9.732902526855469
▁Gu	-9.733174324035645
▁Uh	-9.733319282531738
ontent	-9.733403205871582
▁speed	-9.73346996307373
weight	-9.733762741088867
erhaps	-9.735224723815918
ollege	-9.73665714263916
ung	-9.736949920654297
ky	-9.739045143127441
▁argu	-9.740375518798828
bigger	-9.742036819458008
▁sea	-9.742565155029297
cor	-9.74303913116455
gular	-9.74307918548584
▁aware	-9.743123054504395
ib	-9.74317455291748
merica	-9.743760108947754
online	-9.747056007385254
▁profe	-9.7500581741333
▁Wi	-9.750246047973633
atch	-9.750496864318848
▁race	-9.750602722167969
▁host	-9.751294136047363
lation	-9.752449989318848
▁Ri	-9.754128456115723
option	-9.75422191619873
hannel	-9.754450798034668
dible	-9.755760192871094
verage	-9.756254196166992
cra	-9.756361961364746
▁oppos	-9.75643253326416
▁wrote	-9.756532669067383
round	-9.756579399108887
sarily	-9.757035255432129
▁save	-9.757048606872559
▁text	-9.757234573364258
▁furth	-9.757269859313965
ease	-9.757889747619629
ة	-9.758129119873047
▁cat	-9.758264541625977
onment	-9.758491516113281
ified	-9.759445190429688
▁Ex	-9.759817123413086
▁ship	-9.760437965393066
accept	-9.76142692565918
▁mis	-9.761713027954102
atient	-9.762151718139648
▁ele	-9.762874603271484
▁By	-9.763901710510254
uff	-9.764801979064941
nybody	-9.765146255493164
▁activ	-9.766569137573242
work	-9.767642974853516
Tube	-9.76783561706543
off	-9.768280982971191
▁bra	-9.770877838134766
▁gotta	-9.773221969604492
▁essen	-9.773236274719238
▁organ	-9.773520469665527
author	-9.77517318725586
essure	-9.777778625488281
▁devel	-9.777955055236816
▁gas	-9.778109550476074
review	-9.778618812561035
hood	-9.779032707214355
ganiza	-9.779346466064453
▁kick	-9.780259132385254
nter	-9.780973434448242
▁radio	-9.781001091003418
▁heat	-9.781617164611816
▁fund	-9.781694412231445
▁discu	-9.781829833984375
ج	-9.781956672668457
nefit	-9.783215522766113
▁fra	-9.783334732055664
mic	-9.783900260925293
cro	-9.785663604736328
▁mass	-9.788065910339355
▁image	-9.78815746307373
za	-9.788511276245117
simply	-9.788826942443848
▁Which	-9.789216995239258
▁struc	-9.789774894714355
affect	-9.790105819702148
vel	-9.79013442993164
▁laugh	-9.790526390075684
achine	-9.790694236755371
▁tax	-9.791321754455566
charge	-9.793266296386719
▁slash	-9.794378280639648
▁bank	-9.79457950592041
ban	-9.794783592224121
▁See	-9.795280456542969
nic	-9.795687675476074
ל	-9.796050071716309
▁cold	-9.796278953552246
cul	-9.797404289245605
▁apart	-9.797872543334961
▁mess	-9.801264762878418
▁Paul	-9.801401138305664
People	-9.801894187927246
▁scien	-9.805109024047852
ties	-9.80539608001709
come	-9.80688762664795
screen	-9.806979179382324
у	-9.807251930236816
▁mid	-9.810304641723633
iginal	-9.814031600952148
ath	-9.814257621765137
kin	-9.814712524414062
▁langu	-9.815145492553711
▁Fa	-9.816030502319336
▁Su	-9.816306114196777
▁shall	-9.8181791305542
▁comm	-9.819071769714355
includ	-9.819738388061523
longer	-9.820608139038086
ontinu	-9.820806503295898
▁Col	-9.821048736572266
α	-9.82120132446289
▁term	-9.821939468383789
ez	-9.82217025756836
▁hat	-9.82271957397461
▁kept	-9.822925567626953
detail	-9.82410717010498
ommend	-9.824295043945312
ficial	-9.825002670288086
lon	-9.825498580932617
ew	-9.825504302978516
▁topic	-9.825815200805664
▁shar	-9.826598167419434
use	-9.826918601989746
▁Ru	-9.827040672302246
▁TV	-9.829479217529297
▁persp	-9.829874992370605
sha	-9.831364631652832
▁zero	-9.831670761108398
▁trip	-9.832266807556152
à	-9.832454681396484
ik	-9.832542419433594
▁press	-9.83255386352539
dig	-9.832793235778809
▁green	-9.833504676818848
choose	-9.833712577819824
etwork	-9.835243225097656
▁Star	-9.835770606994629
believ	-9.835813522338867
remain	-9.83581829071045
urface	-9.836164474487305
▁fill	-9.837203979492188
▁verse	-9.837578773498535
▁pop	-9.837593078613281
act	-9.837939262390137
▁condi	-9.838601112365723
United	-9.838619232177734
▁bri	-9.839584350585938
▁fish	-9.839962005615234
▁Com	-9.841276168823242
▁San	-9.842772483825684
ect	-9.84339427947998
▁sett	-9.843775749206543
أ	-9.84487533569336
bly	-9.845298767089844
lease	-9.846741676330566
▁soul	-9.848713874816895
▁addi	-9.84918212890625
▁opin	-9.851396560668945
fense	-9.853272438049316
▁featu	-9.853583335876465
iment	-9.853619575500488
for	-9.853842735290527
▁wide	-9.854438781738281
tian	-9.856575965881348
ith	-9.856717109680176
▁above	-9.85675048828125
ue	-9.858016014099121
ा	-9.858460426330566
remind	-9.858540534973145
▁Get	-9.859617233276367
camera	-9.860365867614746
street	-9.86094856262207
▁partn	-9.861285209655762
▁appr	-9.86130142211914
▁sex	-9.861745834350586
alized	-9.862457275390625
▁worry	-9.86273193359375
ible	-9.863109588623047
ership	-9.863546371459961
▁wh	-9.863916397094727
tantly	-9.864358901977539
▁wild	-9.864824295043945
iverse	-9.865660667419434
place	-9.8657865524292
▁lower	-9.866541862487793
▁inten	-9.86776351928711
▁deliv	-9.86785888671875
▁moved	-9.868019104003906
▁är	-9.868229866027832
▁separ	-9.86890697479248
bra	-9.869545936584473
▁Bar	-9.86987590789795
Q	-9.87055778503418
▁blow	-9.871233940124512
▁tough	-9.872020721435547
▁date	-9.872201919555664
stream	-9.872364044189453
▁fly	-9.873198509216309
ome	-9.873790740966797
ately	-9.875539779663086
comput	-9.876399040222168
▁bed	-9.877206802368164
career	-9.878140449523926
▁stra	-9.878450393676758
press	-9.878798484802246
▁Pr	-9.879388809204102
je	-9.879964828491211
▁sat	-9.881732940673828
mar	-9.88222599029541
pound	-9.88345718383789
ssful	-9.88361930847168
K	-9.885997772216797
umb	-9.886067390441895
▁tip	-9.886817932128906
▁ended	-9.887141227722168
▁gift	-9.887568473815918
fr	-9.88810920715332
ively	-9.888528823852539
▁immed	-9.890312194824219
sight	-9.891072273254395
tmas	-9.891350746154785
izing	-9.892232894897461
▁dan	-9.892439842224121
▁wind	-9.894176483154297
▁par	-9.895620346069336
cept	-9.902034759521484
stant	-9.902400016784668
mmer	-9.902860641479492
▁wow	-9.904047966003418
launch	-9.905645370483398
▁folks	-9.90599250793457
▁wave	-9.906126976013184
log	-9.906353950500488
▁leg	-9.906429290771484
▁carry	-9.907379150390625
easier	-9.909173011779785
evious	-9.911510467529297
tage	-9.912466049194336
rength	-9.912664413452148
fl	-9.91328239440918
credit	-9.914097785949707
▁total	-9.914595603942871
▁pack	-9.915796279907227
summer	-9.917508125305176
▁En	-9.917713165283203
▁Come	-9.918974876403809
lip	-9.919098854064941
▁minus	-9.919347763061523
▁sy	-9.919524192810059
▁micro	-9.919597625732422
eciate	-9.920467376708984
▁After	-9.922719955444336
▁anti	-9.923659324645996
▁weren	-9.92367172241211
lk	-9.924665451049805
rsity	-9.926215171813965
▁First	-9.926276206970215
▁King	-9.927388191223145
pper	-9.927520751953125
▁mark	-9.928973197937012
▁birth	-9.931220054626465
р	-9.931319236755371
▁Jack	-9.932406425476074
▁club	-9.933923721313477
switch	-9.93446159362793
▁code	-9.935473442077637
▁Ge	-9.93659496307373
af	-9.936867713928223
lay	-9.937019348144531
plain	-9.937148094177246
itch	-9.937833786010742
▁bro	-9.938887596130371
gotten	-9.938961029052734
plete	-9.939597129821777
itself	-9.940816879272461
player	-9.941915512084961
letter	-9.94326114654541
▁shift	-9.943703651428223
▁celeb	-9.944153785705566
▁Have	-9.944408416748047
▁David	-9.944523811340332
tastic	-9.945112228393555
ddi	-9.945878982543945
doctor	-9.945939064025879
cently	-9.94595718383789
▁bless	-9.94775104522705
usband	-9.948332786560059
lement	-9.94902515411377
▁rid	-9.94959545135498
▁effec	-9.949902534484863
▁compl	-9.950129508972168
▁guest	-9.950855255126953
▁Joe	-9.952438354492188
▁Our	-9.953227996826172
craft	-9.954538345336914
down	-9.954874992370605
▁cook	-9.95514965057373
nature	-9.956022262573242
regard	-9.95604419708252
▁loca	-9.956280708312988
omfort	-9.956418991088867
▁score	-9.956646919250488
ekend	-9.95778751373291
▁paid	-9.958367347717285
ix	-9.958584785461426
▁Gra	-9.958686828613281
▁horse	-9.959284782409668
▁stat	-9.959702491760254
ternal	-9.960081100463867
fresh	-9.960569381713867
▁trade	-9.961538314819336
▁colle	-9.961553573608398
higher	-9.96181583404541
▁spiri	-9.962003707885742
▁sad	-9.962324142456055
▁medic	-9.962325096130371
▁sales	-9.962642669677734
▁till	-9.963162422180176
daught	-9.963242530822754
league	-9.963614463806152
meters	-9.963699340820312
zi	-9.963703155517578
pu	-9.965476989746094
uc	-9.965785026550293
ان	-9.965865135192871
▁Insta	-9.966387748718262
air	-9.967612266540527
▁smart	-9.967663764953613
ame	-9.968646049499512
▁floor	-9.96866226196289
▁Twitt	-9.970035552978516
▁unc	-9.97048282623291
rated	-9.970625877380371
▁driv	-9.97124195098877
▁peace	-9.972053527832031
ino	-9.972740173339844
▁dia	-9.9753999710083
▁Ch	-9.976434707641602
tribut	-9.976941108703613
▁Ni	-9.977397918701172
▁Ke	-9.979132652282715
▁tour	-9.980440139770508
uch	-9.984177589416504
cted	-9.984688758850098
▁flu	-9.984945297241211
Europe	-9.984996795654297
erious	-9.985994338989258
window	-9.987778663635254
secret	-9.988755226135254
althy	-9.989420890808105
double	-9.989727020263672
▁print	-9.989923477172852
▁album	-9.994110107421875
stood	-9.99413013458252
▁spent	-9.994664192199707
Anyway	-9.994829177856445
rouble	-9.995696067810059
▁born	-9.995747566223145
▁Absol	-9.995820045471191
unk	-9.99606990814209
▁chapt	-9.997347831726074
ku	-9.998237609863281
▁min	-9.998613357543945
rity	-9.99901008605957
provid	-10.00113296508789
▁measu	-10.001266479492188
rant	-10.002668380737305
versus	-10.003643989562988
police	-10.004751205444336
factor	-10.005300521850586
▁vote	-10.005748748779297
bin	-10.006091117858887
how	-10.006845474243164
lright	-10.006864547729492
hor	-10.009695053100586
ov	-10.010833740234375
effort	-10.011256217956543
▁Earth	-10.011488914489746
▁older	-10.011619567871094
▁så	-10.013259887695312
▁South	-10.013427734375
▁lie	-10.013652801513672
roduct	-10.014901161193848
خ	-10.015073776245117
rovide	-10.01561450958252
▁Tom	-10.015673637390137
▁Pre	-10.01659870147705
ddress	-10.016826629638672
tune	-10.016863822937012
object	-10.016952514648438
▁notes	-10.018004417419434
▁shut	-10.01895523071289
spread	-10.020230293273926
▁Mon	-10.020455360412598
master	-10.02111530303955
▁began	-10.021138191223145
▁mae	-10.021315574645996
▁court	-10.021502494812012
target	-10.022071838378906
morrow	-10.02212142944336
▁fat	-10.023024559020996
▁shape	-10.024040222167969
▁lay	-10.02407169342041
derful	-10.024131774902344
▁tempe	-10.024544715881348
▁plann	-10.024694442749023
▁Lu	-10.025320053100586
▁truly	-10.025788307189941
▁poor	-10.025917053222656
▁oil	-10.027077674865723
terday	-10.027290344238281
dding	-10.028390884399414
roduce	-10.02885627746582
notice	-10.029275894165039
ump	-10.030826568603516
▁style	-10.031364440917969
▁Am	-10.031371116638184
ancial	-10.031991958618164
▁sweet	-10.032469749450684
ש	-10.032954216003418
▁stopp	-10.034064292907715
spond	-10.034988403320312
gon	-10.035453796386719
mate	-10.035539627075195
▁ran	-10.036310195922852
▁Fin	-10.036548614501953
cha	-10.03824520111084
gue	-10.04012393951416
▁pour	-10.040270805358887
▁Austr	-10.040841102600098
refore	-10.041781425476074
▁mouth	-10.04231071472168
▁disa	-10.04267692565918
▁Pro	-10.043288230895996
▁pan	-10.0436429977417
▁fell	-10.04405403137207
ique	-10.044717788696289
lie	-10.04494571685791
spirit	-10.046067237854004
▁Those	-10.046113014221191
ock	-10.046306610107422
ughout	-10.046684265136719
advice	-10.048791885375977
bought	-10.048879623413086
sister	-10.050151824951172
yard	-10.05057144165039
▁click	-10.051811218261719
▁milli	-10.052291870117188
▁bag	-10.0529203414917
board	-10.05322265625
▁glad	-10.05324935913086
े	-10.053581237792969
▁expen	-10.055469512939453
▁typic	-10.055550575256348
beyond	-10.056478500366211
clude	-10.0567045211792
▁tele	-10.056709289550781
corner	-10.056848526000977
▁stock	-10.057112693786621
▁goals	-10.0572509765625
?"	-10.057263374328613
ontact	-10.058298110961914
▁onto	-10.05924129486084
nobody	-10.060246467590332
▁ultim	-10.060295104980469
▁skin	-10.061016082763672
▁unit	-10.061964988708496
▁signi	-10.062111854553223
ö	-10.062374114990234
▁gw	-10.062604904174805
rick	-10.062727928161621
lam	-10.06441879272461
nge	-10.064605712890625
idence	-10.064746856689453
▁site	-10.065878868103027
operty	-10.066079139709473
losing	-10.066174507141113
finger	-10.06749153137207
▁due	-10.067901611328125
▁Yep	-10.06817626953125
▁tradi	-10.068504333496094
oblems	-10.069104194641113
▁died	-10.069435119628906
▁note	-10.070813179016113
ç	-10.072113037109375
Google	-10.07288646697998
▁root	-10.07401180267334
cycl	-10.074360847473145
▁Again	-10.075601577758789
▁moon	-10.07696533203125
actual	-10.07731819152832
▁joy	-10.077448844909668
icated	-10.078292846679688
▁spin	-10.078655242919922
▁Also	-10.078779220581055
ز	-10.081624984741211
ponent	-10.0818510055542
cience	-10.082518577575684
az	-10.08304214477539
ev	-10.083252906799316
ternet	-10.08480453491211
▁digit	-10.0865478515625
meter	-10.087221145629883
▁title	-10.087566375732422
hold	-10.087953567504883
▁perfo	-10.088130950927734
▁COVID	-10.088394165039062
iately	-10.088464736938477
sponse	-10.089836120605469
ר	-10.093354225158691
bur	-10.093548774719238
battle	-10.094565391540527
proper	-10.095444679260254
unique	-10.096156120300293
rie	-10.09699821472168
▁Va	-10.097256660461426
▁park	-10.0979585647583
▁evid	-10.098162651062012
udents	-10.098260879516602
caught	-10.099212646484375
▁Exact	-10.099221229553223
ney	-10.09926986694336
▁Mae	-10.099285125732422
lap	-10.099358558654785
▁auto	-10.099874496459961
▁Bible	-10.100229263305664
▁Tra	-10.100936889648438
_	-10.101971626281738
▁Trump	-10.103963851928711
gri	-10.104196548461914
rmance	-10.10422420501709
▁secur	-10.104419708251953
ong	-10.104751586914062
▁expre	-10.104999542236328
▁joke	-10.106304168701172
▁World	-10.107054710388184
▁May	-10.108388900756836
ciety	-10.108838081359863
▁paint	-10.10971736907959
ão	-10.109980583190918
▁warm	-10.110660552978516
ission	-10.110753059387207
specif	-10.111449241638184
tz	-10.111836433410645
ich	-10.112691879272461
▁Dan	-10.114439010620117
▁stuck	-10.114778518676758
growth	-10.115043640136719
neighb	-10.115317344665527
▁lived	-10.11565113067627
clock	-10.116480827331543
▁James	-10.116738319396973
observ	-10.117159843444824
cri	-10.11731243133545
termin	-10.118310928344727
nu	-10.119078636169434
titude	-10.11942195892334
lum	-10.120079040527344
н	-10.121515274047852
▁dr	-10.121786117553711
▁appar	-10.122537612915039
▁sick	-10.122579574584961
vin	-10.122815132141113
sional	-10.12287425994873
matic	-10.123496055603027
win	-10.12365436553955
prise	-10.12387752532959
▁range	-10.124391555786133
▁popul	-10.124507904052734
suffer	-10.124533653259277
▁Pi	-10.124735832214355
▁farm	-10.125048637390137
ari	-10.125086784362793
▁vari	-10.125594139099121
employ	-10.12563705444336
▁Mc	-10.125757217407227
ica	-10.125856399536133
consum	-10.125958442687988
▁volt	-10.12724494934082
fla	-10.1274995803833
▁viol	-10.129425048828125
▁Her	-10.129803657531738
rge	-10.130268096923828
rating	-10.130616188049316
▁och	-10.130819320678711
מ	-10.13093090057373
▁glass	-10.131475448608398
nie	-10.132033348083496
▁Sam	-10.13340950012207
▁heavy	-10.134556770324707
nny	-10.134685516357422
▁rain	-10.134969711303711
▁Ti	-10.135025024414062
ssible	-10.13542366027832
▁jag	-10.13565444946289
ably	-10.136154174804688
easily	-10.13758373260498
▁edge	-10.138204574584961
German	-10.139602661132812
▁bear	-10.139653205871582
▁loss	-10.14111328125
ceive	-10.141904830932617
ficant	-10.14231014251709
nesses	-10.142776489257812
▁trick	-10.14448356628418
▁drug	-10.14449691772461
▁worse	-10.145928382873535
▁magic	-10.146300315856934
tant	-10.146368980407715
active	-10.146578788757324
play	-10.147043228149414
ada	-10.147171020507812
grade	-10.147198677062988
ane	-10.148364067077637
square	-10.148372650146484
▁Bill	-10.150099754333496
▁Sc	-10.150138854980469
▁adult	-10.150797843933105
▁camp	-10.151275634765625
▁heal	-10.15200138092041
▁ski	-10.15229320526123
▁ride	-10.152454376220703
▁worst	-10.152654647827148
▁below	-10.154220581054688
▁doubt	-10.154784202575684
Qu	-10.15700626373291
sses	-10.15715217590332
▁scale	-10.158280372619629
▁tight	-10.158331871032715
▁exc	-10.159679412841797
▁dive	-10.159948348999023
▁massi	-10.160194396972656
cover	-10.162125587463379
▁notic	-10.162805557250977
ב	-10.163251876831055
ichael	-10.164036750793457
cument	-10.165120124816895
▁gain	-10.165534973144531
acy	-10.16579818725586
lished	-10.167566299438477
▁Wal	-10.167583465576172
▁prior	-10.167638778686523
pen	-10.168702125549316
centr	-10.169639587402344
afraid	-10.170306205749512
accord	-10.170836448669434
trange	-10.17434310913086
▁Ben	-10.174382209777832
▁impor	-10.177399635314941
▁frame	-10.178369522094727
dri	-10.179755210876465
▁Black	-10.180194854736328
lig	-10.1827392578125
desire	-10.182759284973145
Friday	-10.183302879333496
rature	-10.1835298538208
▁dance	-10.183812141418457
▁grew	-10.184454917907715
ε	-10.18454360961914
▁resis	-10.184781074523926
handle	-10.185986518859863
▁Cor	-10.1871976852417
ת	-10.187911987304688
opment	-10.189626693725586
▁på	-10.189916610717773
▁North	-10.191165924072266
J	-10.191312789916992
physic	-10.191861152648926
munica	-10.191866874694824
plane	-10.19206428527832
strict	-10.192811965942383
ttle	-10.193184852600098
▁rich	-10.193625450134277
rtable	-10.194138526916504
ppoint	-10.194510459899902
Sunday	-10.19520092010498
▁pract	-10.195930480957031
▁pin	-10.195956230163574
year	-10.196964263916016
▁wrap	-10.19772720336914
▁habit	-10.200349807739258
unless	-10.202239036560059
▁sold	-10.202786445617676
я	-10.202831268310547
ο	-10.20422649383545
▁lift	-10.205026626586914
▁West	-10.205592155456543
leader	-10.205972671508789
▁blah	-10.206141471862793
overed	-10.20697021484375
▁tie	-10.207064628601074
τ	-10.207271575927734
▁broke	-10.20827865600586
alia	-10.208494186401367
rotect	-10.208569526672363
क	-10.209202766418457
ension	-10.209510803222656
▁suck	-10.21154499053955
ι	-10.211731910705566
length	-10.212618827819824
▁flat	-10.213066101074219
talent	-10.213895797729492
rivate	-10.215043067932129
car	-10.21538257598877
▁grab	-10.21570110321045
▁integ	-10.216116905212402
▁cloth	-10.217020034790039
lit	-10.217181205749512
▁broad	-10.218297004699707
▁From	-10.219063758850098
то	-10.219321250915527
▁confe	-10.219537734985352
region	-10.220168113708496
romise	-10.222389221191406
ہ	-10.22304916381836
famous	-10.223468780517578
sphere	-10.223977088928223
▁dropp	-10.224064826965332
▁seat	-10.22438907623291
▁eu	-10.224940299987793
▁apply	-10.225857734680176
▁daily	-10.22654914855957
decide	-10.22960376739502
oedd	-10.229938507080078
coffee	-10.2305908203125
untain	-10.232213020324707
▁Ko	-10.232414245605469
▁Mark	-10.232718467712402
havior	-10.232805252075195
ando	-10.232845306396484
▁relig	-10.232978820800781
▁City	-10.23343563079834
▁dress	-10.233484268188477
▁among	-10.235831260681152
▁lack	-10.235958099365234
heaven	-10.236164093017578
▁comfo	-10.237929344177246
ologic	-10.237979888916016
▁Mor	-10.2385835647583
▁Mike	-10.238929748535156
▁hynny	-10.239561080932617
▁mad	-10.239850044250488
▁owner	-10.241365432739258
igh	-10.242547988891602
▁motiv	-10.243488311767578
ubject	-10.243498802185059
▁figur	-10.24385929107666
▁requi	-10.24590015411377
▁norm	-10.245977401733398
east	-10.248088836669922
▁var	-10.248852729797363
▁Great	-10.25070571899414
of	-10.251041412353516
▁East	-10.251087188720703
▁guide	-10.251407623291016
▁unfor	-10.251895904541016
hospit	-10.251975059509277
circle	-10.25223445892334
mark	-10.252384185791016
▁file	-10.25325870513916
attern	-10.253447532653809
▁Any	-10.25418472290039
broken	-10.254358291625977
rio	-10.255105018615723
spring	-10.255717277526855
arch	-10.255938529968262
▁wheel	-10.256159782409668
▁wire	-10.257328987121582
▁named	-10.257999420166016
▁pitch	-10.258216857910156
är	-10.258387565612793
▁Min	-10.258625030517578
▁Cause	-10.25888729095459
▁Sure	-10.259203910827637
iption	-10.259281158447266
remely	-10.260855674743652
▁taste	-10.26113510131836
▁spoke	-10.261466979980469
▁prop	-10.261953353881836
origin	-10.262539863586426
lia	-10.26313304901123
▁advan	-10.263461112976074
▁fail	-10.263720512390137
▁cup	-10.264583587646484
leased	-10.264592170715332
ulous	-10.265219688415527
▁sand	-10.26540756225586
formed	-10.265471458435059
▁avoid	-10.26623249053955
▁Will	-10.266727447509766
signed	-10.266907691955566
▁cash	-10.267955780029297
stitu	-10.268619537353516
right	-10.269811630249023
▁held	-10.27235221862793
▁leav	-10.272955894470215
lesson	-10.27365779876709
ommand	-10.273760795593262
▁damn	-10.274020195007324
▁Bro	-10.274316787719727
gress	-10.274532318115234
▁metal	-10.274605751037598
bright	-10.27560043334961
▁gold	-10.27669620513916
▁hum	-10.277426719665527
▁batte	-10.277641296386719
script	-10.278361320495605
▁tiny	-10.279881477355957
▁Does	-10.280011177062988
▁Apple	-10.280108451843262
die	-10.280220031738281
▁flip	-10.281213760375977
app	-10.28146743774414
profit	-10.281745910644531
▁Chi	-10.285748481750488
▁Peter	-10.28698444366455
modern	-10.287701606750488
▁egg	-10.28785514831543
▁wine	-10.288445472717285
▁initi	-10.288498878479004
ndemic	-10.289203643798828
र	-10.289246559143066
▁none	-10.289361000061035
econom	-10.289778709411621
▁Take	-10.290480613708496
ctive	-10.291156768798828
nimals	-10.291191101074219
ruggle	-10.291882514953613
combin	-10.292776107788086
nected	-10.2930326461792
▁defen	-10.293577194213867
▁knock	-10.293991088867188
▁Holy	-10.295110702514648
▁mode	-10.295365333557129
▁promo	-10.295403480529785
damage	-10.295553207397461
▁execu	-10.296518325805664
animal	-10.297408103942871
ose	-10.297662734985352
▁engag	-10.298096656799316
▁boat	-10.298218727111816
▁capit	-10.298249244689941
▁solid	-10.29934024810791
wr	-10.300436019897461
gra	-10.301482200622559
former	-10.30164909362793
word	-10.302098274230957
field	-10.303442001342773
ص	-10.303881645202637
▁manu	-10.30394458770752
п	-10.303946495056152
oncern	-10.304476737976074
▁China	-10.304566383361816
▁Once	-10.305680274963379
elle	-10.307352066040039
receiv	-10.30764389038086
▁impro	-10.307794570922852
к	-10.309157371520996
fri	-10.30974006652832
▁milit	-10.310173034667969
▁sum	-10.310725212097168
ط	-10.31165885925293
ال	-10.311917304992676
▁influ	-10.311981201171875
نا	-10.312116622924805
device	-10.312660217285156
▁alive	-10.313037872314453
venue	-10.313447952270508
▁frequ	-10.314738273620605
▁holi	-10.314741134643555
uk	-10.314929962158203
▁weak	-10.315044403076172
▁pet	-10.315558433532715
demand	-10.316438674926758
▁busy	-10.316550254821777
belief	-10.31677532196045
murder	-10.31706428527832
▁suit	-10.31763744354248
well	-10.317720413208008
▁Ken	-10.317827224731445
▁worri	-10.318060874938965
▁Very	-10.318219184875488
give	-10.318511009216309
▁sky	-10.319262504577637
ppy	-10.31951904296875
creas	-10.319866180419922
law	-10.319890022277832
troduc	-10.322098731994629
▁hunt	-10.322113990783691
▁descr	-10.322768211364746
än	-10.325050354003906
ette	-10.32651138305664
reneur	-10.326530456542969
▁Charl	-10.327561378479004
opular	-10.328202247619629
urance	-10.3295316696167
miliar	-10.329680442810059
repeat	-10.329800605773926
Please	-10.329964637756348
ese	-10.330385208129883
▁seri	-10.330881118774414
ection	-10.330907821655273
ase	-10.332832336425781
quest	-10.332897186279297
▁added	-10.333372116088867
▁quiet	-10.334416389465332
alance	-10.334856986999512
X	-10.336480140686035
iff	-10.337349891662598
ush	-10.337737083435059
shirt	-10.33786392211914
ession	-10.340350151062012
▁rough	-10.341065406799316
variou	-10.341761589050293
method	-10.342447280883789
▁Love	-10.342713356018066
female	-10.343212127685547
▁gosh	-10.34376335144043
hedule	-10.3438081741333
▁kilo	-10.344195365905762
aurant	-10.34428882598877
istent	-10.344655990600586
ercise	-10.3452730178833
า	-10.3452787399292
stupid	-10.34537410736084
▁shock	-10.345527648925781
▁Big	-10.345941543579102
decade	-10.3471097946167
▁rise	-10.347153663635254
▁pleas	-10.348209381103516
б	-10.348535537719727
▁core	-10.348880767822266
▁motor	-10.35004711151123
▁Satur	-10.350918769836426
▁horri	-10.35107707977295
▁func	-10.352418899536133
▁squar	-10.353026390075684
▁estab	-10.353150367736816
▁dry	-10.353479385375977
▁fasci	-10.354162216186523
▁Super	-10.356266021728516
▁angle	-10.357160568237305
associ	-10.35777759552002
sexual	-10.35788631439209
▁Per	-10.358599662780762
bri	-10.358744621276855
▁raise	-10.359526634216309
▁fruit	-10.359601974487305
▁layer	-10.360115051269531
▁impo	-10.36052417755127
▁Cali	-10.360697746276855
▁contr	-10.361104965209961
▁earn	-10.36202621459961
rategy	-10.362475395202637
entrep	-10.36298942565918
▁Day	-10.364472389221191
▁smell	-10.364921569824219
Israel	-10.365646362304688
▁psych	-10.36768627166748
▁regul	-10.368138313293457
▁expos	-10.368258476257324
book	-10.36933422088623
▁poten	-10.370589256286621
truggl	-10.371207237243652
ч	-10.37166976928711
▁wake	-10.37192153930664
oducts	-10.37213134765625
pho	-10.374445915222168
▁famil	-10.37486457824707
з	-10.375049591064453
▁chem	-10.375420570373535
Y	-10.375645637512207
phone	-10.375679969787598
mechan	-10.376375198364258
chi	-10.37645435333252
commun	-10.376762390136719
ceived	-10.377518653869629
ν	-10.37844181060791
vestig	-10.378660202026367
verse	-10.378804206848145
aries	-10.380276679992676
▁Miss	-10.38051700592041
sponsi	-10.38076400756836
eign	-10.381153106689453
▁plug	-10.381563186645508
▁plate	-10.382637977600098
closer	-10.383174896240234
omplex	-10.383233070373535
▁honor	-10.38416862487793
tific	-10.384209632873535
▁cloud	-10.384445190429688
Number	-10.384780883789062
wel	-10.384953498840332
ydd	-10.386923789978027
ы	-10.387308120727539
▁scar	-10.387858390808105
▁odd	-10.387920379638672
mula	-10.389065742492676
power	-10.389567375183105
▁carri	-10.39055347442627
fault	-10.3911714553833
▁Matt	-10.391336441040039
▁lady	-10.391399383544922
rupt	-10.391622543334961
nating	-10.391939163208008
▁shout	-10.39336109161377
tudent	-10.393732070922852
▁crowd	-10.394848823547363
▁Most	-10.394868850708008
Monday	-10.394881248474121
Spirit	-10.39541244506836
▁Hello	-10.395712852478027
▁Two	-10.396139144897461
▁vol	-10.396318435668945
urious	-10.39686107635498
ria	-10.398846626281738
▁tea	-10.399087905883789
prised	-10.399940490722656
tively	-10.401432037353516
random	-10.402119636535645
▁Mary	-10.402578353881836
chieve	-10.402902603149414
fornia	-10.403154373168945
▁cheap	-10.403660774230957
▁trail	-10.404324531555176
string	-10.405130386352539
seemed	-10.4053373336792
▁staff	-10.405632972717285
motion	-10.405681610107422
ما	-10.405778884887695
ttempt	-10.406728744506836
stern	-10.408076286315918
▁giant	-10.410100936889648
alist	-10.410428047180176
lated	-10.410513877868652
▁Cu	-10.410820960998535
▁Bri	-10.410855293273926
uppose	-10.411734580993652
น	-10.412208557128906
▁Japan	-10.412674903869629
oncept	-10.413311958312988
flight	-10.413581848144531
cting	-10.413604736328125
▁guard	-10.41398811340332
▁emerg	-10.414094924926758
house	-10.415946006774902
▁Rob	-10.416576385498047
▁spa	-10.416584014892578
imagin	-10.417609214782715
ontext	-10.417627334594727
ji	-10.418004989624023
▁vill	-10.418045043945312
▁freak	-10.418855667114258
▁winn	-10.420063018798828
recent	-10.420376777648926
lish	-10.42226791381836
อ	-10.423386573791504
improv	-10.424089431762695
â	-10.42435359954834
lac	-10.424939155578613
spite	-10.426549911499023
▁snow	-10.427319526672363
▁Today	-10.431661605834961
memory	-10.431905746459961
▁loud	-10.434752464294434
dinner	-10.435269355773926
Listen	-10.435942649841309
pha	-10.436092376708984
▁vehic	-10.436552047729492
neath	-10.436726570129395
phi	-10.437564849853516
expand	-10.437565803527832
critic	-10.437944412231445
nnounc	-10.438097953796387
▁Ste	-10.438520431518555
lastic	-10.439834594726562
ware	-10.441667556762695
▁Mil	-10.441893577575684
▁assum	-10.442011833190918
▁screw	-10.442163467407227
taught	-10.442934036254883
scope	-10.44521713256836
tists	-10.445639610290527
estate	-10.446050643920898
▁alter	-10.447250366210938
bol	-10.447257995605469
▁proud	-10.448360443115234
▁chain	-10.448383331298828
prison	-10.448729515075684
▁retir	-10.449239730834961
▁crit	-10.449372291564941
except	-10.449457168579102
▁fuel	-10.44961166381836
▁era	-10.449820518493652
raised	-10.450366020202637
▁unive	-10.45085620880127
lliant	-10.452255249023438
وا	-10.4528169631958
ndo	-10.453935623168945
נ	-10.454459190368652
▁tear	-10.454872131347656
tuniti	-10.455232620239258
ronic	-10.455567359924316
supply	-10.455918312072754
illa	-10.456318855285645
▁adver	-10.456907272338867
ymlaen	-10.457372665405273
head	-10.457986831665039
tretch	-10.458090782165527
safety	-10.45943832397461
▁Give	-10.460541725158691
dibly	-10.46263313293457
▁copy	-10.46278190612793
fourth	-10.463149070739746
ensive	-10.463319778442383
ognize	-10.463507652282715
mpaign	-10.463955879211426
▁judge	-10.464116096496582
▁Make	-10.464287757873535
like	-10.465320587158203
▁trial	-10.465615272521973
▁firm	-10.465628623962402
▁för	-10.465923309326172
▁math	-10.466601371765137
▁medit	-10.468025207519531
revent	-10.46819019317627
▁tank	-10.469042778015137
hicken	-10.46916675567627
artist	-10.469673156738281
tellig	-10.471722602844238
▁bone	-10.471781730651855
applic	-10.47205924987793
commit	-10.472993850708008
▁happi	-10.473943710327148
bottle	-10.474286079406738
▁House	-10.4756441116333
▁virtu	-10.475837707519531
▁seek	-10.476916313171387
▁zone	-10.47781753540039
mitted	-10.478500366210938
▁Steve	-10.479057312011719
ör	-10.479596138000488
larger	-10.480365753173828
▁mynd	-10.480977058410645
ے	-10.482012748718262
▁evil	-10.483011245727539
▁Ze	-10.483084678649902
istake	-10.48376750946045
ê	-10.483776092529297
vy	-10.483809471130371
—	-10.484145164489746
▁While	-10.486205101013184
stall	-10.486210823059082
reveal	-10.486494064331055
timate	-10.486796379089355
▁grace	-10.487192153930664
▁crack	-10.487761497497559
▁Tu	-10.488630294799805
▁dda	-10.488792419433594
weapon	-10.488797187805176
▁equa	-10.489641189575195
▁male	-10.49160385131836
▁agent	-10.492493629455566
prayer	-10.493410110473633
quence	-10.495377540588379
▁tired	-10.496092796325684
▁relax	-10.496841430664062
ponsor	-10.496971130371094
George	-10.4976224899292
covery	-10.49836540222168
▁Tell	-10.498878479003906
▁Men	-10.498988151550293
burg	-10.499070167541504
▁smile	-10.499298095703125
▁Hall	-10.499497413635254
▁drama	-10.501380920410156
▁twice	-10.501627922058105
▁basis	-10.502786636352539
لا	-10.502843856811523
phe	-10.503973007202148
▁shoe	-10.504322052001953
▁trigg	-10.504695892333984
studio	-10.504886627197266
▁في	-10.505846977233887
update	-10.50634479522705
▁Time	-10.506872177124023
cc	-10.507535934448242
▁pair	-10.507863998413086
ifica	-10.508064270019531
conven	-10.508258819580078
▁legal	-10.508530616760254
instru	-10.50997257232666
biliti	-10.510305404663086
oli	-10.510422706604004
ticket	-10.511330604553223
▁draft	-10.511741638183594
Really	-10.513991355895996
▁crime	-10.514695167541504
!"	-10.515329360961914
▁calm	-10.516790390014648
zo	-10.517613410949707
▁react	-10.517938613891602
▁edit	-10.518258094787598
▁audio	-10.520017623901367
▁legi	-10.520306587219238
▁Gar	-10.520743370056152
adjust	-10.52094841003418
▁truck	-10.521756172180176
French	-10.523289680480957
ville	-10.523869514465332
▁orbit	-10.524456977844238
Amazon	-10.524479866027832
▁Han	-10.525338172912598
visual	-10.526057243347168
▁Alex	-10.527277946472168
flect	-10.527393341064453
ddy	-10.527634620666504
▁UK	-10.527807235717773
▁task	-10.528364181518555
afford	-10.528529167175293
▁gear	-10.529349327087402
slowly	-10.529826164245605
basket	-10.53076171875
mwneud	-10.53091049194336
▁iron	-10.53134822845459
è	-10.531427383422852
▁thick	-10.531728744506836
teen	-10.531805992126465
▁syn	-10.532490730285645
▁pump	-10.53270435333252
▁Sorry	-10.533560752868652
▁purch	-10.5335693359375
bby	-10.533907890319824
▁lucky	-10.534551620483398
▁Rich	-10.535158157348633
▁net	-10.535989761352539
▁Next	-10.536017417907715
London	-10.53614616394043
carbon	-10.536320686340332
▁meat	-10.536458969116211
point	-10.536999702453613
▁sir	-10.537755012512207
bodies	-10.539311408996582
muscle	-10.539559364318848
etic	-10.540706634521484
▁mask	-10.542184829711914
lusion	-10.542276382446289
▁caus	-10.542645454406738
▁equip	-10.542759895324707
eating	-10.545016288757324
▁Bob	-10.545037269592285
▁effic	-10.54571533203125
ار	-10.546808242797852
▁chair	-10.549225807189941
▁bath	-10.550677299499512
minist	-10.550804138183594
histor	-10.551228523254395
▁frust	-10.551602363586426
global	-10.552578926086426
signal	-10.552810668945312
▁judg	-10.553674697875977
:	-10.555337905883789
orship	-10.558013916015625
▁Would	-10.558074951171875
ם	-10.558472633361816
▁Ah	-10.558693885803223
▁blog	-10.558697700500488
▁river	-10.56008243560791
▁prepa	-10.560263633728027
ü	-10.560462951660156
entral	-10.560786247253418
्	-10.562368392944336
filled	-10.562837600708008
native	-10.563020706176758
depart	-10.564236640930176
hoping	-10.564261436462402
ritish	-10.567056655883789
▁India	-10.567224502563477
▁ocean	-10.568563461303711
▁luck	-10.569059371948242
▁sugar	-10.569547653198242
gather	-10.569740295410156
▁quant	-10.570094108581543
▁rare	-10.570295333862305
vous	-10.570857048034668
vid	-10.571303367614746
faster	-10.57193374633789
mail	-10.572575569152832
▁gradu	-10.572944641113281
manage	-10.574678421020508
▁map	-10.576395988464355
nxiety	-10.57663345336914
volve	-10.577160835266113
न	-10.577399253845215
nearly	-10.57783317565918
ercial	-10.578917503356934
blo	-10.579207420349121
dio	-10.580347061157227
▁Adam	-10.581408500671387
cancer	-10.583087921142578
▁survi	-10.583209037780762
ambi	-10.58334732055664
bridge	-10.58411979675293
killed	-10.58425521850586
▁Che	-10.584539413452148
▁noise	-10.587294578552246
▁Unive	-10.58737850189209
▁north	-10.588005065917969
▁vent	-10.58834171295166
ون	-10.588705062866211
่	-10.589229583740234
▁Texas	-10.589641571044922
▁commu	-10.589668273925781
ienc	-10.590213775634766
garden	-10.591288566589355
Father	-10.591609954833984
sembl	-10.591828346252441
▁invit	-10.591954231262207
hand	-10.593727111816406
▁AI	-10.594749450683594
asi	-10.594850540161133
▁Roman	-10.595535278320312
▁grate	-10.595959663391113
prepar	-10.596010208129883
▁hook	-10.59783935546875
на	-10.598081588745117
▁Obvi	-10.598943710327148
eithio	-10.599019050598145
limate	-10.599762916564941
ublish	-10.60051441192627
▁charg	-10.60097885131836
▁Wait	-10.60296630859375
cia	-10.603226661682129
▁Scott	-10.603611946105957
quired	-10.603901863098145
pared	-10.607038497924805
ford	-10.607675552368164
excuse	-10.608179092407227
▁south	-10.608502388000488
▁rush	-10.608954429626465
entury	-10.60957145690918
▁occur	-10.611124038696289
idered	-10.61162281036377
▁tech	-10.611693382263184
ellent	-10.612112998962402
ú	-10.614253997802734
▁minim	-10.614343643188477
ร	-10.614816665649414
lcohol	-10.616278648376465
▁Dar	-10.617920875549316
policy	-10.618968963623047
strike	-10.619135856628418
vince	-10.619328498840332
style	-10.620047569274902
wan	-10.620744705200195
ustain	-10.621456146240234
ftware	-10.622318267822266
winter	-10.624390602111816
▁label	-10.624944686889648
rack	-10.626117706298828
▁hotel	-10.626368522644043
Russia	-10.626593589782715
Before	-10.62663459777832
▁dear	-10.627157211303711
Willia	-10.627374649047852
lorida	-10.627778053283691
circum	-10.627978324890137
▁divid	-10.628945350646973
▁Ya	-10.629300117492676
▁categ	-10.629781723022461
▁ridic	-10.629817962646484
år	-10.630229949951172
ella	-10.631875038146973
danger	-10.63260555267334
▁salt	-10.6332368850708
▁pure	-10.633991241455078
logist	-10.63420295715332
ات	-10.63503360748291
▁rap	-10.635194778442383
▁tap	-10.635924339294434
button	-10.639406204223633
▁Tim	-10.639606475830078
▁bomb	-10.64001750946045
▁Rock	-10.643566131591797
▁upset	-10.645363807678223
escape	-10.64555549621582
▁Jeff	-10.64624309539795
bel	-10.646703720092773
▁lean	-10.647820472717285
▁accur	-10.648143768310547
▁adapt	-10.65062427520752
closed	-10.6517972946167
bil	-10.652249336242676
prefer	-10.65286922454834
&	-10.653299331665039
▁Other	-10.653401374816895
liquid	-10.654008865356445
budget	-10.655657768249512
▁respo	-10.655940055847168
nciple	-10.656023025512695
स	-10.656610488891602
▁Park	-10.65776538848877
noon	-10.657962799072266
stroy	-10.658618927001953
promis	-10.658881187438965
erback	-10.659444808959961
▁Janua	-10.659446716308594
assume	-10.659655570983887
▁angry	-10.659663200378418
fairly	-10.66165542602539
▁storm	-10.661924362182617
flict	-10.662686347961426
▁trend	-10.66327953338623
▁hall	-10.663591384887695
▁Actu	-10.663599014282227
▁Over	-10.663866996765137
▁queen	-10.663979530334473
▁bod	-10.665416717529297
indeed	-10.666727066040039
stinct	-10.66693115234375
plenty	-10.666949272155762
▁failu	-10.667309761047363
illion	-10.667485237121582
tended	-10.667510986328125
▁bond	-10.6676607131958
▁bitch	-10.668707847595215
▁phase	-10.669278144836426
▁scary	-10.6696138381958
ía	-10.670365333557129
▁chip	-10.670655250549316
box	-10.671211242675781
threat	-10.67174243927002
▁shame	-10.67233657836914
▁climb	-10.672908782958984
ь	-10.673310279846191
▁Yo	-10.673399925231934
▁admit	-10.675646781921387
volume	-10.676674842834473
▁Think	-10.678500175476074
▁saved	-10.678580284118652
ogress	-10.678776741027832
▁Radio	-10.680113792419434
cerned	-10.680306434631348
uggest	-10.680525779724121
ذ	-10.681251525878906
hmm	-10.681805610656738
▁flash	-10.681939125061035
▁dar	-10.682701110839844
mocrat	-10.683390617370605
▁loan	-10.683489799499512
▁flag	-10.683565139770508
▁grav	-10.68416976928711
▁bread	-10.684388160705566
▁White	-10.684408187866211
remove	-10.685150146484375
▁debt	-10.685603141784668
▁Wash	-10.685881614685059
▁align	-10.686711311340332
trauma	-10.686873435974121
serva	-10.68724250793457
cident	-10.687265396118164
ע	-10.691047668457031
▁refle	-10.691572189331055
ddle	-10.691900253295898
icipat	-10.69223403930664
▁hur	-10.692465782165527
ד	-10.693521499633789
▁Frank	-10.6940336227417
▁brief	-10.694040298461914
▁gym	-10.694724082946777
▁occas	-10.695362091064453
▁split	-10.696383476257324
▁Sun	-10.698915481567383
▁crew	-10.699298858642578
vestor	-10.700345039367676
▁mount	-10.700827598571777
▁Tri	-10.702634811401367
saving	-10.702791213989258
▁suppl	-10.703216552734375
fectly	-10.703566551208496
▁boss	-10.704200744628906
BC	-10.704440116882324
▁Bur	-10.70581340789795
driver	-10.705901145935059
▁Shi	-10.707297325134277
Canada	-10.707464218139648
й	-10.707540512084961
▁bike	-10.707961082458496
Disney	-10.708860397338867
spira	-10.70908260345459
▁knee	-10.709210395812988
▁neck	-10.70927619934082
pocket	-10.709699630737305
speech	-10.709813117980957
▁route	-10.710102081298828
▁facil	-10.710370063781738
istry	-10.710509300231934
belong	-10.711322784423828
surpri	-10.711699485778809
▁varie	-10.712739944458008
▁gap	-10.713200569152832
▁civil	-10.713313102722168
▁March	-10.71369457244873
▁smoke	-10.714314460754395
▁gate	-10.714974403381348
▁loop	-10.716251373291016
fellow	-10.717053413391113
▁tape	-10.717557907104492
ी	-10.717962265014648
aptain	-10.718921661376953
▁elev	-10.719413757324219
▁clip	-10.719504356384277
▁sharp	-10.719542503356934
forgot	-10.719751358032227
با	-10.721407890319824
▁cael	-10.722020149230957
wrestl	-10.723108291625977
▁optim	-10.72352409362793
▁champ	-10.723821640014648
ature	-10.724418640136719
defend	-10.724947929382324
guitar	-10.726400375366211
berg	-10.726605415344238
ppreci	-10.72754955291748
▁enemy	-10.728711128234863
ffe	-10.729398727416992
▁remov	-10.729968070983887
egment	-10.730751991271973
what	-10.73118782043457
nervou	-10.731405258178711
phrase	-10.731864929199219
fident	-10.73208236694336
ها	-10.733819007873535
▁corre	-10.734114646911621
gerous	-10.734747886657715
▁studi	-10.73479175567627
▁minor	-10.735052108764648
▁blind	-10.735089302062988
▁Talk	-10.735300064086914
▁reduc	-10.735514640808105
scared	-10.736498832702637
useful	-10.738395690917969
▁Green	-10.739567756652832
financ	-10.740066528320312
ico	-10.740817070007324
shadow	-10.741120338439941
ं	-10.7415771484375
▁Brown	-10.741870880126953
League	-10.742010116577148
mirror	-10.743651390075684
propos	-10.743803024291992
▁pool	-10.74498462677002
ρ	-10.746208190917969
Robert	-10.747621536254883
ridge	-10.747870445251465
▁fake	-10.74846076965332
но	-10.748626708984375
posit	-10.749181747436523
▁capac	-10.749898910522461
▁hide	-10.750333786010742
wisdom	-10.750779151916504
▁pursu	-10.750940322875977
whelm	-10.750971794128418
▁iawn	-10.751581192016602
▁pub	-10.751888275146484
▁steal	-10.752155303955078
war	-10.75255298614502
cribed	-10.752699851989746
▁Nick	-10.753357887268066
nsible	-10.75343132019043
▁scrip	-10.754422187805176
σ	-10.754457473754883
enario	-10.754537582397461
factur	-10.754936218261719
▁bio	-10.754964828491211
vor	-10.755305290222168
▁hip	-10.756375312805176
scream	-10.756481170654297
▁kit	-10.757012367248535
▁yw	-10.757450103759766
▁Jim	-10.757746696472168
raffic	-10.760311126708984
beauty	-10.76134204864502
AC	-10.762918472290039
▁Show	-10.762977600097656
crimin	-10.763059616088867
▁Thurs	-10.763647079467773
▁awful	-10.76436996459961
thetic	-10.765739440917969
▁inspi	-10.766145706176758
▁rank	-10.767035484313965
▁erupt	-10.76734733581543
▁prime	-10.767800331115723
deeper	-10.768885612487793
▁من	-10.768996238708496
August	-10.770344734191895
ollect	-10.770415306091309
ि	-10.770562171936035
▁gig	-10.770957946777344
smooth	-10.77111530303955
▁volca	-10.7711820602417
ains	-10.77159595489502
▁demo	-10.771601676940918
Donald	-10.772075653076172
▁Carol	-10.772480010986328
▁depth	-10.774382591247559
▁Mac	-10.775834083557129
▁Phil	-10.776392936706543
aunt	-10.779007911682129
▁bli	-10.779083251953125
Africa	-10.779634475708008
compos	-10.780667304992676
fast	-10.781500816345215
bwysig	-10.782716751098633
▁gene	-10.78337287902832
ourage	-10.783553123474121
▁simpl	-10.783772468566895
xtreme	-10.785308837890625
▁crash	-10.786928176879883
▁Keep	-10.787826538085938
▁Luc	-10.78905963897705
encies	-10.790239334106445
lican	-10.790282249450684
▁drag	-10.790680885314941
▁coast	-10.7911376953125
त	-10.791498184204102
ician	-10.791775703430176
▁lunch	-10.79233455657959
witnes	-10.793160438537598
▁sensi	-10.793693542480469
▁slide	-10.793717384338379
▁pheno	-10.794388771057129
cluded	-10.794565200805664
yellow	-10.794814109802246
stakes	-10.795548439025879
▁guar	-10.795769691467285
engage	-10.796321868896484
▁här	-10.796483993530273
כ	-10.796703338623047
▁hydro	-10.796770095825195
ो	-10.79737663269043
▁depre	-10.797636985778809
rapy	-10.79797649383545
nounce	-10.798117637634277
▁tube	-10.798859596252441
▁liber	-10.799055099487305
▁empty	-10.799363136291504
▁sacri	-10.800439834594727
▁swim	-10.800854682922363
▁Check	-10.801629066467285
flavor	-10.801759719848633
گ	-10.801935195922852
▁Qui	-10.802206993103027
lash	-10.80372428894043
income	-10.803894996643066
▁milk	-10.803975105285645
▁drill	-10.804010391235352
filter	-10.805081367492676
govern	-10.805580139160156
प	-10.80679702758789
▁rob	-10.808521270751953
▁acid	-10.80915641784668
arian	-10.810784339904785
placed	-10.811027526855469
victim	-10.812843322753906
▁Hope	-10.814870834350586
▁blame	-10.815279006958008
▁panel	-10.815288543701172
shine	-10.815549850463867
▁narra	-10.815962791442871
cheese	-10.816854476928711
▁lab	-10.81775951385498
served	-10.817997932434082
▁kiss	-10.81813907623291
lick	-10.818584442138672
cancel	-10.81859016418457
▁June	-10.820411682128906
town	-10.820478439331055
proof	-10.821663856506348
front	-10.822224617004395
لي	-10.822355270385742
ก	-10.824640274047852
▁tweet	-10.825393676757812
▁teeth	-10.82551383972168
print	-10.826305389404297
▁neutr	-10.826570510864258
▁Smith	-10.826850891113281
Daniel	-10.82708740234375
detect	-10.827676773071289
ม	-10.828977584838867
▁fash	-10.829408645629883
surviv	-10.82983684539795
▁quit	-10.82984733581543
rocket	-10.830109596252441
▁posse	-10.83021354675293
▁fool	-10.830740928649902
▁Brad	-10.831032752990723
▁grant	-10.831756591796875
writer	-10.832123756408691
▁Octob	-10.832169532775879
▁brown	-10.832206726074219
cceler	-10.83284854888916
spired	-10.833824157714844
▁ideal	-10.835405349731445
▁kitch	-10.836577415466309
▁Nice	-10.836885452270508
▁não	-10.837200164794922
hinese	-10.837967872619629
magnet	-10.838642120361328
▁Last	-10.839577674865723
▁angel	-10.8400297164917
conomy	-10.84192943572998
based	-10.843270301818848
▁NFL	-10.843395233154297
▁float	-10.845415115356445
▁Brian	-10.845653533935547
uesday	-10.846219062805176
▁false	-10.846965789794922
▁Out	-10.847525596618652
เ	-10.847990989685059
▁trad	-10.848758697509766
ض	-10.848877906799316
border	-10.849693298339844
▁danc	-10.849804878234863
▁Queen	-10.849884033203125
dinary	-10.851078987121582
▁Back	-10.8512601852417
▁delic	-10.851305961608887
onsult	-10.851909637451172
▁nutri	-10.853232383728027
cular	-10.854483604431152
tense	-10.854982376098633
▁labor	-10.855551719665527
priate	-10.855647087097168
▁Septe	-10.856303215026855
π	-10.856354713439941
▁Wedne	-10.85671329498291
▁dust	-10.85749340057373
▁adven	-10.858049392700195
▁gut	-10.859704971313477
enging	-10.860471725463867
extend	-10.860929489135742
▁April	-10.862089157104492
▁glory	-10.864315032958984
的	-10.865930557250977
▁shake	-10.866453170776367
ين	-10.866634368896484
utomat	-10.866637229919434
crisis	-10.866888046264648
▁Op	-10.866888999938965
▁innov	-10.866888999938965
insane	-10.867361068725586
oxygen	-10.868640899658203
▁bowl	-10.870083808898926
не	-10.87057113647461
wealth	-10.871017456054688
stairs	-10.872329711914062
▁accid	-10.873066902160645
▁dynam	-10.873315811157227
▁Angel	-10.873762130737305
rimary	-10.873791694641113
▁aggre	-10.873941421508789
▁dumb	-10.873950958251953
▁philo	-10.874820709228516
hicago	-10.874903678894043
ж	-10.875112533569336
μ	-10.875536918640137
▁roof	-10.876570701599121
▁cream	-10.879012107849121
▁Life	-10.879152297973633
▁Mel	-10.881063461303711
▁bang	-10.881121635437012
▁Fuck	-10.881489753723145
▁pipe	-10.882229804992676
cogniz	-10.882920265197754
Decemb	-10.884922981262207
▁magn	-10.885581970214844
▁robot	-10.88658618927002
Street	-10.88681697845459
vulner	-10.887882232666016
known	-10.888412475585938
▁Port	-10.889223098754883
▁Repub	-10.890266418457031
κ	-10.890893936157227
lik	-10.891523361206055
gazine	-10.89182186126709
dvance	-10.89209270477295
▁crap	-10.892509460449219
▁ackno	-10.893021583557129
erform	-10.89340591430664
▁epi	-10.893449783325195
▁input	-10.893498420715332
▁ghost	-10.893983840942383
France	-10.894094467163086
▁trem	-10.894696235656738
sample	-10.895881652832031
▁loose	-10.895973205566406
monstr	-10.896265983581543
ث	-10.897016525268555
levant	-10.897186279296875
ncient	-10.898689270019531
▁Three	-10.898987770080566
facing	-10.900247573852539
ח	-10.90062141418457
ั	-10.903738975524902
▁pause	-10.903752326965332
lawyer	-10.904776573181152
ल	-10.904987335205078
▁chose	-10.905000686645508
hopify	-10.90624713897705
▁annoy	-10.90634536743164
reduce	-10.908594131469727
▁Franc	-10.908727645874023
▁decla	-10.909989356994629
▁punch	-10.910679817199707
ô	-10.911134719848633
ladies	-10.91143798828125
▁simul	-10.911808013916016
ول	-10.91224193572998
▁rose	-10.912528991699219
preach	-10.912839889526367
sugges	-10.913009643554688
ह	-10.913655281066895
alysis	-10.913741111755371
▁Tony	-10.914107322692871
▁acco	-10.915043830871582
▁circu	-10.915997505187988
*	-10.916940689086914
▁Kevin	-10.917048454284668
latest	-10.91810417175293
υ	-10.918713569641113
dustri	-10.918869018554688
pret	-10.91940975189209
▁embar	-10.92151165008545
▁feder	-10.922131538391113
▁admin	-10.9244384765625
apolog	-10.924995422363281
▁virus	-10.925063133239746
injury	-10.92536449432373
rtists	-10.925671577453613
▁radia	-10.928077697753906
▁drum	-10.931766510009766
debate	-10.932255744934082
▁heavi	-10.93384838104248
ست	-10.934065818786621
▁licen	-10.934349060058594
▁Biden	-10.934447288513184
corpor	-10.934536933898926
▁CEO	-10.934947967529297
fluenc	-10.935134887695312
char	-10.935479164123535
▁Ryan	-10.935934066772461
reserv	-10.93640422821045
▁steel	-10.937424659729004
▁DJ	-10.93751335144043
▁adopt	-10.937623977661133
ام	-10.937653541564941
ק	-10.938431739807129
▁swing	-10.940691947937012
▁geo	-10.941317558288574
▁blank	-10.941427230834961
▁corpo	-10.941861152648926
▁Since	-10.942475318908691
ribute	-10.944482803344727
ferred	-10.945115089416504
nicate	-10.94517707824707
▁Jones	-10.94521713256836
▁assis	-10.946941375732422
attach	-10.947190284729004
llabor	-10.947715759277344
▁chart	-10.948652267456055
satisf	-10.949557304382324
▁wound	-10.94998550415039
output	-10.950337409973145
้	-10.950465202331543
loyees	-10.950650215148926
height	-10.951047897338867
ircuit	-10.95324420928955
strain	-10.953304290771484
▁gay	-10.954068183898926
ldier	-10.95488452911377
▁strip	-10.955124855041504
▁excep	-10.955567359924316
▁ruin	-10.955862998962402
▁permi	-10.955880165100098
ко	-10.95655345916748
▁mouse	-10.956609725952148
titute	-10.957381248474121
▁spell	-10.960101127624512
clinic	-10.962820053100586
▁High	-10.963903427124023
▁unusu	-10.96397876739502
ية	-10.964470863342285
म	-10.965099334716797
"	-10.96533489227295
▁fifth	-10.965564727783203
ро	-10.96642780303955
highly	-10.966802597045898
tural	-10.967851638793945
▁objec	-10.969690322875977
▁Could	-10.96976375579834
ñ	-10.972229957580566
antasy	-10.973527908325195
fessor	-10.974627494812012
▁abuse	-10.97529411315918
▁maxim	-10.97618579864502
▁alien	-10.977004051208496
▁Steph	-10.977204322814941
forced	-10.977270126342773
redict	-10.977640151977539
▁victo	-10.97801399230957
▁Ukrai	-10.97880744934082
ı	-10.979412078857422
▁está	-10.979948997497559
▁snap	-10.980480194091797
secure	-10.981690406799316
decent	-10.982316017150879
ojects	-10.982415199279785
▁vibe	-10.982423782348633
▁ymddy	-10.982519149780273
praise	-10.983177185058594
▁slave	-10.986868858337402
balanc	-10.98690414428711
▁Play	-10.988106727600098
▁plot	-10.988462448120117
▁sweat	-10.988475799560547
mobile	-10.99018383026123
horror	-10.991141319274902
uthent	-10.992399215698242
rofile	-10.993474960327148
▁nigga	-10.995172500610352
▁anima	-10.99706745147705
▁Blue	-10.997095108032227
arrest	-10.99715518951416
bubble	-10.997528076171875
tempor	-10.997678756713867
acting	-10.997917175292969
▁Jason	-10.998682975769043
rystal	-11.00022029876709
▁twist	-11.000696182250977
▁devil	-11.001209259033203
▁الم	-11.001358032226562
twenty	-11.002650260925293
ymptom	-11.002705574035645
▁vaca	-11.002714157104492
crying	-11.002969741821289
▁Wh	-11.003202438354492
diagno	-11.005369186401367
cruit	-11.006766319274902
▁sauce	-11.007676124572754
Martin	-11.007824897766113
▁hypo	-11.00908374786377
branch	-11.009202003479004
آ	-11.031463623046875
q	-11.039170265197754
پ	-11.054652214050293
ш	-11.056396484375
ז	-11.068325996398926
г	-11.068893432617188
ς	-11.073197364807129
ง	-11.080995559692383
х	-11.096549987792969
ว	-11.12403678894043
η	-11.132715225219727
ں	-11.151740074157715
ี	-11.159049034118652
פ	-11.163168907165527
إ	-11.16495132446289
ø	-11.16624927520752
ί	-11.172032356262207
ย	-11.18651008605957
ى	-11.202125549316406
đ	-11.214404106140137
ס	-11.219958305358887
λ	-11.236371994018555
ค	-11.246789932250977
غ	-11.251553535461426
ئ	-11.255985260009766
ю	-11.269397735595703
ज	-11.285001754760742
य	-11.31639575958252
Z	-11.333300590515137
š	-11.3670015335083
ג	-11.36729907989502
¿	-11.36859130859375
ά	-11.374673843383789
ό	-11.393960952758789
บ	-11.408028602600098
我	-11.414668083190918
是	-11.430194854736328
ล	-11.434857368469238
ब	-11.449085235595703
έ	-11.458937644958496
і	-11.460898399353027
–	-11.472521781921387
ן	-11.475947380065918
ด	-11.476611137390137
چ	-11.496973037719727
ھ	-11.500029563903809
ต	-11.50856876373291
ě	-11.512234687805176
द	-11.527382850646973
ग	-11.53557300567627
ž	-11.544540405273438
ء	-11.553231239318848
ิ	-11.553351402282715
ט	-11.555865287780762
व	-11.578168869018555
。	-11.57915210723877
ท	-11.590256690979004
ă	-11.592244148254395
צ	-11.595108032226562
γ	-11.60841178894043
ব	-12.348573684692383
ã	-12.596792221069336
ै	-12.822904586791992
$	-13.87006664276123
ऀ	-14.87006664276123
ँ	-14.87106704711914
ः	-14.872066497802734
ऄ	-14.873066902160645
अ	-14.874066352844238
आ	-14.875066757202148
इ	-14.876066207885742
ई	-14.877066612243652
उ	-14.878067016601562
ऊ	-14.879066467285156
ऋ	-14.880066871643066
ऌ	-14.88106632232666
ऍ	-14.88206672668457
ऎ	-14.883066177368164
ए	-14.884066581726074
ऐ	-14.885066986083984
ऑ	-14.886066436767578
ऒ	-14.887066841125488
ओ	-14.888066291809082
औ	-14.889066696166992
ख	-14.890067100524902
घ	-14.891066551208496
ङ	-14.892066955566406
च	-14.89306640625
छ	-14.89406681060791
झ	-14.895066261291504
ञ	-14.896066665649414
ट	-14.897067070007324
ठ	-14.898066520690918
ड	-14.899066925048828
ढ	-14.900066375732422
ण	-14.901066780090332
थ	-14.902066230773926
ध	-14.903066635131836
ऩ	-14.904067039489746
फ	-14.90506649017334
भ	-14.90606689453125
ऱ	-14.907066345214844
ळ	-14.908066749572754
ऴ	-14.909066200256348
श	-14.910066604614258
ष	-14.911067008972168
ऺ	-14.912066459655762
ऻ	-14.913066864013672
़	-14.914066314697266
ऽ	-14.915066719055176
ु	-14.91606616973877
ू	-14.91706657409668
ृ	-14.91806697845459
ॄ	-14.919066429138184
ॅ	-14.920066833496094
ॆ	-14.921066284179688
ॉ	-14.922066688537598
ॊ	-14.923067092895508
ौ	-14.924066543579102
ॎ	-14.925066947937012
ॏ	-14.926066398620605
ॐ	-14.927066802978516
॑	-14.92806625366211
॒	-14.92906665802002
॓	-14.93006706237793
॔	-14.931066513061523
ॕ	-14.932066917419434
ॖ	-14.933066368103027
ॗ	-14.934066772460938
क़	-14.935066223144531
ख़	-14.936066627502441
ग़	-14.937067031860352
ज़	-14.938066482543945
ड़	-14.939066886901855
ढ़	-14.94006633758545
फ़	-14.94106674194336
य़	-14.942066192626953
ॠ	-14.943066596984863
ॡ	-14.944067001342773
ॢ	-14.945066452026367
ॣ	-14.946066856384277
।	-14.947066307067871
॥	-14.948066711425781
०	-14.949067115783691
१	-14.950066566467285
२	-14.951066970825195
३	-14.952066421508789
४	-14.9530668258667
५	-14.954066276550293
६	-14.955066680908203
७	-14.956067085266113
८	-14.957066535949707
९	-14.958066940307617
॰	-14.959066390991211
ॱ	-14.960066795349121
ॲ	-14.961066246032715
ॳ	-14.962066650390625
ॴ	-14.963067054748535
ॵ	-14.964066505432129
ॶ	-14.965066909790039
ॷ	-14.966066360473633
ॸ	-14.967066764831543
ॹ	-14.968066215515137
ॺ	-14.969066619873047
ॻ	-14.970067024230957
ॼ	-14.97106647491455
ॽ	-14.972066879272461
ॾ	-14.973066329956055
ॿ	-14.974066734313965
‌	-14.975066184997559
‍	-14.976066589355469
को	-14.977066993713379
▁स	-14.978066444396973
न्	-14.979066848754883
▁प	-14.980066299438477
र्	-14.981066703796387
▁ह	-14.982067108154297
▁क	-14.98306655883789
मा	-14.9840669631958
्र	-14.985066413879395
्य	-14.986066818237305
▁त	-14.987066268920898
▁भ	-14.988066673278809
ने	-14.989067077636719
▁अ	-14.990066528320312
▁ग	-14.991066932678223
ले	-14.992066383361816
ला	-14.993066787719727
▁र	-14.99406623840332
नि	-14.99506664276123
▁य	-14.99606704711914
▁ब	-14.997066497802734
▁छ	-14.998066902160645
▁म	-14.999066352844238
का	-15.000066757202148
▁च	-15.001066207885742
स्	-15.002066612243652
ाह	-15.003067016601562
▁ज	-15.004066467285156
रू	-15.005066871643066
▁व	-15.00606632232666
नु	-15.00706672668457
ाम	-15.008066177368164
▁द	-15.009066581726074
▁आ	-15.010066986083984
क्	-15.011066436767578
ार	-15.012066841125488
▁त्य	-15.013066291809082
हरू	-15.014066696166992
▁गर्	-15.015067100524902
ति	-15.016066551208496
लाई	-15.017066955566406
न्छ	-15.01806640625
▁ए	-15.01906681060791
▁चाह	-15.020066261291504
▁न	-15.021066665649414
ेर	-15.022067070007324
िँ	-15.023066520690918
▁हु	-15.024066925048828
▁प्र	-15.025066375732422
▁चाहिँ	-15.026066780090332
▁पनि	-15.027066230773926
▁हो	-15.028066635131836
पा	-15.029067039489746
यो	-15.03006649017334
▁हाम	-15.03106689453125
ाँ	-15.032066345214844
▁भने	-15.033066749572754
▁उ	-15.034066200256348
ान	-15.035066604614258
▁गर	-15.036067008972168
▁यो	-15.037066459655762
ुर	-15.038066864013672
ना	-15.039066314697266
▁के	-15.040066719055176
म्	-15.04106616973877
▁वि	-15.04206657409668
ता	-15.04306697845459
एको	-15.044066429138184
दा	-15.045066833496094
लि	-15.046066284179688
ेको	-15.047066688537598
्या	-15.048067092895508
▁ला	-15.049066543579102
▁मा	-15.050066947937012
▁हामी	-15.051066398620605
त्र	-15.052066802978516
टा	-15.05306625366211
स्त	-15.05406665802002
िन	-15.05506706237793
▁फ	-15.056066513061523
वा	-15.057066917419434
त्	-15.058066368103027
ौँ	-15.059066772460938
हाँ	-15.060066223144531
▁नि	-15.061066627502441
▁अब	-15.062067031860352
िक	-15.063066482543945
पाई	-15.064066886901855
▁थ	-15.06506633758545
▁तपाई	-15.06606674194336
▁तपाईँ	-15.067066192626953
री	-15.068066596984863
▁ख	-15.069067001342773
▁त्यो	-15.070066452026367
्रो	-15.071066856384277
ाइ	-15.072066307067871
▁भन्	-15.073066711425781
नुह	-15.074067115783691
ल्	-15.075066566467285
▁लाग	-15.076066970825195
ाउ	-15.077066421508789
दै	-15.0780668258667
हि	-15.079066276550293
▁हुन्छ	-15.080066680908203
▁यस	-15.081067085266113
ुन	-15.082066535949707
▁स्	-15.083066940307617
▁त्यस	-15.084066390991211
ाट	-15.085066795349121
ङ्	-15.086066246032715
डि	-15.087066650390625
▁ल	-15.088067054748535
▁कुर	-15.089066505432129
▁श	-15.090066909790039
▁रा	-15.091066360473633
▁सा	-15.092066764831543
इन	-15.093066215515137
▁एक	-15.094066619873047
्न	-15.095067024230957
▁ट	-15.09606647491455
▁ध	-15.097066879272461
ही	-15.098066329956055
न्ट	-15.099066734313965
ार्	-15.100066184997559
िस	-15.101066589355469
ेख	-15.102066993713379
बाट	-15.103066444396973
▁इ	-15.104066848754883
ेरि	-15.105066299438477
▁लागि	-15.106066703796387
▁एउ	-15.107067108154297
▁सम	-15.10806655883789
▁ने	-15.1090669631958
क्ष	-15.110066413879395
था	-15.111066818237305
रि	-15.112066268920898
▁दु	-15.113066673278809
स्तो	-15.114067077636719
ैले	-15.115066528320312
▁एउटा	-15.116066932678223
▁हामीले	-15.117066383361816
ाल	-15.118066787719727
कार	-15.11906623840332
▁गर्न	-15.12006664276123
▁कुरा	-15.12106704711914
लो	-15.122066497802734
एर	-15.123066902160645
ित	-15.124066352844238
▁थि	-15.125066757202148
ीहरू	-15.126066207885742
▁दि	-15.127066612243652
▁गर्ने	-15.128067016601562
पर्	-15.129066467285156
छि	-15.130066871643066
या	-15.13106632232666
▁होइन	-15.13206672668457
▁आफ	-15.133066177368164
ेश	-15.134066581726074
▁सक्	-15.135066986083984
▁रह	-15.136066436767578
ेस	-15.137066841125488
िर	-15.138066291809082
▁सब	-15.139066696166992
▁भएको	-15.140067100524902
्यो	-15.141066551208496
▁यहाँ	-15.142066955566406
नुहु	-15.14306640625
हिले	-15.14406681060791
▁हाम्रो	-15.145066261291504
▁नै	-15.146066665649414
ाहरू	-15.147067070007324
प्	-15.148066520690918
▁तर	-15.149066925048828
नुहो	-15.150066375732422
▁सि	-15.151066780090332
ँग	-15.152066230773926
द्	-15.153066635131836
पाल	-15.154067039489746
नुपर्	-15.15506649017334
▁घ	-15.15606689453125
पछि	-15.157066345214844
▁व्य	-15.158066749572754
▁अर्	-15.159066200256348
▁भनेको	-15.160066604614258
▁नेपाल	-15.161067008972168
▁मैले	-15.162066459655762
▁ठ	-15.163066864013672
▁दुई	-15.164066314697266
ेखि	-15.165066719055176
▁भन्ने	-15.16606616973877
खेरि	-15.16706657409668
▁ड	-15.16806697845459
▁कुन	-15.169066429138184
्ट	-15.170066833496094
▁छन्	-15.171066284179688
दाखेरि	-15.172066688537598
▁अनि	-15.173067092895508
न्त	-15.174066543579102
न्द	-15.175066947937012
▁सम्	-15.176066398620605
ेका	-15.177066802978516
दि	-15.17806625366211
नुहुन्छ	-15.17906665802002
▁क्	-15.18006706237793
▁भयो	-15.181066513061523
नुभ	-15.182066917419434
▁कि	-15.183066368103027
भि	-15.184066772460938
ङ्ग	-15.185066223144531
सँग	-15.186066627502441
▁सबै	-15.187067031860352
▁है	-15.188066482543945
स्ट	-15.189066886901855
दैन	-15.19006633758545
▁से	-15.19106674194336
क्र	-15.192066192626953
▁पर्	-15.193066596984863
▁हे	-15.194067001342773
▁बि	-15.195066452026367
ेरै	-15.196066856384277
▁जुन	-15.197066307067871
क्स	-15.198066711425781
ाउँ	-15.199067115783691
कि	-15.200066566467285
▁अहिले	-15.201066970825195
▁काम	-15.202066421508789
▁धेरै	-15.2030668258667
▁जा	-15.204066276550293
▁सु	-15.205066680908203
नुहोस्	-15.206067085266113
▁भनेर	-15.207066535949707
ेट	-15.208066940307617
ैन	-15.209066390991211
स्था	-15.210066795349121
उँ	-15.211066246032715
▁लि	-15.212066650390625
▁सं	-15.213067054748535
▁छैन	-15.214066505432129
▁सर	-15.215066909790039
धि	-15.216066360473633
न्न	-15.217066764831543
▁हज	-15.218066215515137
ेन्ट	-15.219066619873047
▁भए	-15.220067024230957
न्ड	-15.22106647491455
ाव	-15.222066879272461
▁हुने	-15.223066329956055
म्म	-15.224066734313965
▁कार्	-15.225066184997559
▁बढ	-15.226066589355469
रा	-15.227066993713379
गा	-15.228066444396973
छौँ	-15.229066848754883
िट	-15.230066299438477
ीको	-15.231066703796387
▁बना	-15.232067108154297
▁थियो	-15.23306655883789
न्स	-15.2340669631958
▁कस	-15.235066413879395
र्म	-15.236066818237305
▁सो	-15.237066268920898
▁आफ्न	-15.238066673278809
▁को	-15.239067077636719
्च	-15.240066528320312
ास	-15.241066932678223
वि	-15.242066383361816
▁मेर	-15.243066787719727
▁बु	-15.24406623840332
नी	-15.24506664276123
▁वर्	-15.24606704711914
ारण	-15.247066497802734
▁हेर्	-15.248066902160645
न्त्र	-15.249066352844238
रह	-15.250066757202148
▁कति	-15.251066207885742
िम	-15.252066612243652
वस्था	-15.253067016601562
▁गरि	-15.254066467285156
नको	-15.255066871643066
▁कुनै	-15.25606632232666
िय	-15.25706672668457
▁मात्र	-15.258066177368164
▁गरेको	-15.259066581726074
▁केही	-15.260066986083984
▁आज	-15.261066436767578
क्ति	-15.262066841125488
न्य	-15.263066291809082
▁राम	-15.264066696166992
▁मेरो	-15.265067100524902
▁कार्य	-15.266066551208496
ष्ट	-15.267066955566406
हरूले	-15.26806640625
न्ध	-15.26906681060791
▁उहाँ	-15.270066261291504
ानी	-15.271066665649414
ूर्	-15.272067070007324
योग	-15.273066520690918
▁दिन	-15.274066925048828
▁ले	-15.275066375732422
कै	-15.276066780090332
्यु	-15.277066230773926
▁रू	-15.278066635131836
▁पु	-15.279067039489746
न्दा	-15.28006649017334
▁तिन	-15.28106689453125
▁विश	-15.282066345214844
▁आफ्नो	-15.283066749572754
▁मलाई	-15.284066200256348
▁निर्	-15.285066604614258
▁हुँ	-15.286067008972168
▁तपाईँले	-15.287066459655762
देखि	-15.288066864013672
ाग	-15.289066314697266
स्तै	-15.290066719055176
▁रूप	-15.29106616973877
▁हजार	-15.29206657409668
▁परि	-15.29306697845459
ली	-15.294066429138184
बर	-15.295066833496094
इस	-15.296066284179688
सा	-15.297066688537598
्छ	-15.298067092895508
ाँच	-15.299066543579102
के	-15.300066947937012
जना	-15.301066398620605
हरूको	-15.302066802978516
▁मि	-15.30306625366211
्ने	-15.30406665802002
▁राख	-15.30506706237793
▁बे	-15.306066513061523
देश	-15.307066917419434
▁तपाईँको	-15.308066368103027
▁गरेर	-15.309066772460938
मै	-15.310066223144531
▁देख	-15.311066627502441
उने	-15.312067031860352
सम्म	-15.313066482543945
नमा	-15.314066886901855
▁यु	-15.31506633758545
▁राज	-15.31606674194336
▁का	-15.317066192626953
▁जो	-15.318066596984863
▁मह	-15.319067001342773
त्त	-15.320066452026367
▁सरकार	-15.321066856384277
▁प्रति	-15.322066307067871
▁राम्रो	-15.323066711425781
▁डि	-15.324067115783691
▁मु	-15.325066566467285
स्थ	-15.326066970825195
रण	-15.327066421508789
भन्दा	-15.3280668258667
▁कारण	-15.329066276550293
नुपर्छ	-15.330066680908203
क्ट	-15.331067085266113
▁क्ष	-15.332066535949707
▁प्रा	-15.333066940307617
ारी	-15.334066390991211
▁वर्ष	-15.335066795349121
ोज	-15.336066246032715
रे	-15.337066650390625
▁उन	-15.338067054748535
▁एकद	-15.339066505432129
वटा	-15.340066909790039
ुरु	-15.341066360473633
▁सह	-15.342066764831543
▁रूपमा	-15.343066215515137
▁किन	-15.344066619873047
▁गर्छ	-15.345067024230957
हरूलाई	-15.34606647491455
▁अर्को	-15.347066879272461
टी	-15.348066329956055
्री	-15.349066734313965
▁समा	-15.350066184997559
एका	-15.351066589355469
▁अथ	-15.352066993713379
िज	-15.353066444396973
▁उप	-15.354066848754883
्व	-15.355066299438477
▁अथवा	-15.356066703796387
▁रहेको	-15.357067108154297
▁साथ	-15.35806655883789
▁समय	-15.3590669631958
▁वा	-15.360066413879395
ध्य	-15.361066818237305
लिक	-15.362066268920898
द्ध	-15.363066673278809
ब्	-15.364067077636719
▁गरी	-15.365066528320312
▁अनु	-15.366066932678223
नुभयो	-15.367066383361816
▁पा	-15.368066787719727
्रे	-15.36906623840332
र्थ	-15.37006664276123
यर	-15.37106704711914
▁पहि	-15.372066497802734
▁त्यहाँ	-15.373066902160645
चार	-15.374066352844238
▁कम	-15.375066757202148
▁सय	-15.376066207885742
▁प्रश	-15.377066612243652
▁जस्तो	-15.378067016601562
रो	-15.379066467285156
▁पार्	-15.380066871643066
क्षा	-15.38106632232666
ेल	-15.38206672668457
▁हुन	-15.383066177368164
म्प	-15.384066581726074
▁छु	-15.385066986083984
▁लग	-15.386066436767578
▁पाँच	-15.387066841125488
त्व	-15.388066291809082
▁लेख	-15.389066696166992
क्रम	-15.390067100524902
▁जन	-15.391066551208496
सन	-15.392066955566406
ेत्र	-15.39306640625
कारी	-15.39406681060791
ङ्क	-15.395066261291504
▁व्यक्ति	-15.396066665649414
म्बर	-15.397067070007324
▁विष	-15.398066520690918
▁जस	-15.399066925048828
रमा	-15.400066375732422
उँछ	-15.401066780090332
ुल	-15.402066230773926
ती	-15.403066635131836
ेन	-15.404067039489746
▁त्यही	-15.40506649017334
िरह	-15.40606689453125
▁मान्छ	-15.407066345214844
नुपर्ने	-15.408066749572754
▁बुझ	-15.409066200256348
ोर	-15.410066604614258
▁क्षेत्र	-15.411067008972168
▁बा	-15.412066459655762
धान	-15.413066864013672
भाव	-15.414066314697266
▁थिए	-15.415066719055176
▁स्थ	-15.41606616973877
▁चार	-15.41706657409668
उन	-15.41806697845459
्रा	-15.419066429138184
▁विषय	-15.420066833496094
▁कसरी	-15.421066284179688
▁बो	-15.422066688537598
▁अवस्था	-15.423067092895508
▁कुराहरू	-15.424066543579102
ीव	-15.425066947937012
जा	-15.426066398620605
रहेको	-15.427066802978516
▁यसको	-15.42806625366211
बन्ध	-15.42906665802002
▁भि	-15.43006706237793
▁पो	-15.431066513061523
स्ता	-15.432066917419434
ोट	-15.433066368103027
▁यसरी	-15.434066772460938
▁होला	-15.435066223144531
▁सकि	-15.436066627502441
▁नम्बर	-15.437067031860352
▁देखि	-15.438066482543945
▁देश	-15.439066886901855
▁मात्रै	-15.44006633758545
▁जि	-15.44106674194336
▁अगा	-15.442066192626953
▁उनीहरू	-15.443066596984863
▁या	-15.444067001342773
▁अगाडि	-15.445066452026367
ेछ	-15.446066856384277
ीमा	-15.447066307067871
ारे	-15.448066711425781
▁शि	-15.449067115783691
▁(	-15.450066566467285
▁गर्नु	-15.451066970825195
▁पर	-15.452066421508789
▁मान्छे	-15.4530668258667
▁मन	-15.454066276550293
▁स्वा	-15.455066680908203
सार	-15.456067085266113
▁उस	-15.457066535949707
गत	-15.458066940307617
ाउने	-15.459066390991211
▁अन्त	-15.460066795349121
▁प्	-15.461066246032715
प्र	-15.462066650390625
्ञ	-15.463067054748535
▁जीव	-15.464066505432129
▁बेला	-15.465066909790039
▁महि	-15.466066360473633
र्ट	-15.467066764831543
▁रु	-15.468066215515137
ाउन	-15.469066619873047
ूर्ण	-15.470067024230957
ष्ट्र	-15.47106647491455
▁यस्तो	-15.472066879272461
▁एकदमै	-15.473066329956055
▁विद	-15.474066734313965
र्स	-15.475066184997559
▁रो	-15.476066589355469
▁ओ	-15.477066993713379
्यान	-15.478066444396973
▁बाह	-15.479066848754883
▁फेरि	-15.480066299438477
▁यसलाई	-15.481066703796387
निर	-15.482067108154297
▁सङ्	-15.48306655883789
ामा	-15.4840669631958
सी	-15.485066413879395
▁अरू	-15.486066818237305
त्य	-15.487066268920898
ऱ्यो	-15.488066673278809
याँ	-15.489067077636719
क्त	-15.490066528320312
▁प्रश्न	-15.491066932678223
▁गर्दा	-15.492066383361816
▁भएर	-15.493066787719727
▁चि	-15.49406623840332
▁पढ	-15.49506664276123
मि	-15.49606704711914
जी	-15.497066497802734
निक	-15.498066902160645
▁सुरु	-15.499066352844238
▁भन्छ	-15.500066757202148
ेक	-15.501066207885742
▁कस्तो	-15.502066612243652
▁गर्दै	-15.503067016601562
धार	-15.504066467285156
थि	-15.505066871643066
▁खा	-15.50606632232666
▁ठु	-15.50706672668457
वार	-15.508066177368164
▁इन्	-15.509066581726074
प्त	-15.510066986083984
छु	-15.511066436767578
जन	-15.512066841125488
▁छौँ	-15.513066291809082
▁अलिक	-15.514066696166992
▁भनि	-15.515067100524902
▁पुर	-15.516066551208496
▁स्व	-15.517066955566406
▁गु	-15.51806640625
▁यदि	-15.51906681060791
▁गर्दाखेरि	-15.520066261291504
▁टु	-15.521066665649414
न्द्र	-15.522067070007324
▁हामीलाई	-15.523066520690918
वाद	-15.524066925048828
▁टा	-15.525066375732422
ेष	-15.526066780090332
ेसन	-15.527066230773926
▁क्र	-15.528066635131836
▁बज	-15.529067039489746
▁त्यसको	-15.53006649017334
▁वान	-15.53106689453125
डी	-15.532066345214844
लमा	-15.533066749572754
तिक	-15.534066200256348
▁स्ट	-15.535066604614258
जि	-15.536067008972168
▁सम्बन्ध	-15.537066459655762
भिन्न	-15.538066864013672
▁समस	-15.539066314697266
▁पुग	-15.540066719055176
र्च	-15.54106616973877
▁ठाउँ	-15.54206657409668
▁विभिन्न	-15.54306697845459
▁तथा	-15.544066429138184
केको	-15.545066833496094
कृ	-15.546066284179688
▁उत्	-15.547066688537598
▁अफ	-15.548067092895508
रको	-15.549066543579102
▁हा	-15.550066947937012
▁सक्नुहुन्छ	-15.551066398620605
▁फाइ	-15.552066802978516
ष्	-15.55306625366211
▁रि	-15.55406665802002
▁हुँदैन	-15.55506706237793
▁प्रयोग	-15.556066513061523
▁एक्स	-15.557066917419434
च्च	-15.558066368103027
▁जस्तै	-15.559066772460938
▁नेपाली	-15.560066223144531
्नु	-15.561066627502441
▁हुनुहुन्छ	-15.562067031860352
▁व्यवस्था	-15.563066482543945
▁आफू	-15.564066886901855
▁भन्दाखेरि	-15.56506633758545
▁ल्या	-15.56606674194336
▁आयो	-15.567066192626953
▁तपाईँलाई	-15.568066596984863
▁कार्यक्रम	-15.569067001342773
फल	-15.570066452026367
▁सामा	-15.571066856384277
▁भइ	-15.572066307067871
▁नयाँ	-15.573066711425781
▁गरे	-15.574067115783691
▁आइ	-15.575066566467285
पूर्ण	-15.576066970825195
▁राष्ट्र	-15.577066421508789
िति	-15.5780668258667
▁विद्या	-15.579066276550293
माण	-15.580066680908203
नेछ	-15.581067085266113
▁यसमा	-15.582066535949707
डियो	-15.583066940307617
ूल	-15.584066390991211
त्तर	-15.585066795349121
▁सात	-15.586066246032715
ग्र	-15.587066650390625
▁अव	-15.588067054748535
▁आउँछ	-15.589066505432129
▁यति	-15.590066909790039
ताको	-15.591066360473633
▁मानि	-15.592066764831543
हरूमा	-15.593066215515137
▁यहाँनिर	-15.594066619873047
्स	-15.595067024230957
▁कारणले	-15.59606647491455
िया	-15.597066879272461
▁ग्र	-15.598066329956055
न्छु	-15.599066734313965
ुक	-15.600066184997559
▁पै	-15.601066589355469
▁रहेछ	-15.602066993713379
▁लाग्छ	-15.603066444396973
▁दस	-15.604066848754883
▁बता	-15.605066299438477
नुहोला	-15.606066703796387
उनु	-15.607067108154297
श्य	-15.60806655883789
▁झ	-15.6090669631958
▁विशेष	-15.610066413879395
कास	-15.611066818237305
▁हुन्	-15.612066268920898
▁त्यसलाई	-15.613066673278809
▁फि	-15.614067077636719
ेत	-15.615066528320312
▁ठुलो	-15.616066932678223
▁त्यस्तो	-15.617066383361816
▁चौ	-15.618066787719727
▁नग	-15.61906623840332
दछ	-15.62006664276123
▁भएका	-15.62106704711914
▁जान	-15.622066497802734
▁ब्या	-15.623066902160645
थ्यो	-15.624066352844238
▁क्या	-15.625066757202148
▁त्यति	-15.626066207885742
▁बस	-15.627066612243652
ाहा	-15.628067016601562
▁गरेका	-15.629066467285156
ञ्च	-15.630066871643066
▁भन्दा	-15.63106632232666
▁जति	-15.63206672668457
तिर	-15.633066177368164
न्त्री	-15.634066581726074
▁आठ	-15.635066986083984
त्ति	-15.636066436767578
▁बारे	-15.637066841125488
▁त्यसपछि	-15.638066291809082
की	-15.639066696166992
▁विकास	-15.640067100524902
नुभएको	-15.641066551208496
न्ति	-15.642066955566406
▁समस्या	-15.64306640625
▁अलिकति	-15.64406681060791
त्म	-15.645066261291504
▁खु	-15.646066665649414
▁सक्छ	-15.647067070007324
▁बारेमा	-15.648066520690918
स्तु	-15.649066925048828
▁व्यव	-15.650066375732422
लिस	-15.651066780090332
ल्ला	-15.652066230773926
▁सकिन्छ	-15.653066635131836
▁हेर	-15.654067039489746
िभ	-15.65506649017334
▁आएको	-15.65606689453125
लको	-15.657066345214844
िङ	-15.658066749572754
▁बढी	-15.659066200256348
▁कर्म	-15.660066604614258
▁टे	-15.661067008972168
▁आव	-15.662066459655762
▁मो	-15.663066864013672
दन	-15.664066314697266
वर्	-15.665066719055176
भित्र	-15.66606616973877
▁प्राप्त	-15.66706657409668
▁भिडियो	-15.66806697845459
▁किस	-15.669066429138184
▁गरिएको	-15.670066833496094
▁अप	-15.671066284179688
▁यी	-15.672066688537598
▁तिम	-15.673067092895508
▁ती	-15.674066543579102
▁फो	-15.675066947937012
▁भा	-15.676066398620605
▁सरकारले	-15.677066802978516
▁कृ	-15.67806625366211
▁लिएर	-15.67906665802002
▁ढ	-15.68006706237793
▁अप्	-15.681066513061523
▁खे	-15.682066917419434
▁आजको	-15.683066368103027
▁छो	-15.684066772460938
▁मे	-15.685066223144531
▁त्यसै	-15.686066627502441
▁खोज	-15.687067031860352
डा	-15.688066482543945
▁नभ	-15.689066886901855
रिक	-15.69006633758545
▁खाल	-15.69106674194336
ालय	-15.692066192626953
▁कु	-15.693066596984863
जिक	-15.694067001342773
▁थाहा	-15.695066452026367
▁भार	-15.696066856384277
मेन्ट	-15.697066307067871
▁कम्प	-15.698066711425781
▁नौ	-15.699067115783691
▁जब	-15.700066566467285
र्व	-15.701066970825195
▁ठिक	-15.702066421508789
▁दो	-15.7030668258667
केपछि	-15.704066276550293
▁घर	-15.705066680908203
▁गरिरह	-15.706067085266113
▁त्यसमा	-15.707066535949707
शि	-15.708066940307617
▁अस	-15.709066390991211
▁लगा	-15.710066795349121
▁मानिस	-15.711066246032715
▁हेर्नुहोस्	-15.712066650390625
▁पऱ्यो	-15.713067054748535
लिका	-15.714066505432129
घि	-15.715066909790039
ाना	-15.716066360473633
▁टाइ	-15.717066764831543
मान	-15.718066215515137
▁दिएको	-15.719066619873047
▁निय	-15.720067024230957
ममा	-15.72106647491455
लस	-15.722066879272461
यन	-15.723066329956055
▁निका	-15.724066734313965
▁अझ	-15.725066184997559
▁नाम	-15.726066589355469
्यौँ	-15.727066993713379
श्यक	-15.728066444396973
्ड	-15.729066848754883
▁महिना	-15.730066299438477
▁त्यस्तै	-15.731066703796387
▁बस्	-15.732067108154297
▁पार्टी	-15.73306655883789
पि	-15.7340669631958
त्त्व	-15.735066413879395
ाले	-15.736066818237305
▁पहिला	-15.737066268920898
▁पछि	-15.738066673278809
ीय	-15.739067077636719
▁इन्ट	-15.740066528320312
स्थ्य	-15.741066932678223
▁हजुर	-15.742066383361816
ग्	-15.743066787719727
ज्ञ	-15.74406623840332
▁डे	-15.74506664276123
▁यही	-15.74606704711914
▁पहिलो	-15.747066497802734
▁जान्छ	-15.748066902160645
द्धि	-15.749066352844238
वास	-15.750066757202148
▁प्रकार	-15.751066207885742
धा	-15.752066612243652
ुट	-15.753067016601562
▁राशि	-15.754066467285156
हु	-15.755066871643066
दान	-15.75606632232666
र्क	-15.75706672668457
▁जे	-15.758066177368164
▁स्वास्थ्य	-15.759066581726074
भने	-15.760066986083984
▁पाइ	-15.761066436767578
▁किनभने	-15.762066841125488
▁माइन	-15.763066291809082
▁निर्माण	-15.764066696166992
▁राजनी	-15.765067100524902
मो	-15.766066551208496
▁रुप	-15.767066955566406
ट्ट	-15.76806640625
ानो	-15.76906681060791
▁देखिन्छ	-15.770066261291504
▁माइनस	-15.771066665649414
ाय	-15.772067070007324
र्श	-15.773066520690918
ोक	-15.774066925048828
▁ता	-15.775066375732422
छा	-15.776066780090332
▁आधार	-15.777066230773926
ैँ	-15.778066635131836
▁गर्नुहोस्	-15.779067039489746
▁दिने	-15.78006649017334
▁घट	-15.78106689453125
▁अधि	-15.782066345214844
▁आवश्यक	-15.783066749572754
▁जीवन	-15.784066200256348
▁मूल	-15.785066604614258
ेन्स	-15.786067008972168
▁गर्छौँ	-15.787066459655762
ाब	-15.788066864013672
▁तय	-15.789066314697266
लय	-15.790066719055176
▁लाख	-15.79106616973877
भा	-15.79206657409668
▁अध्य	-15.79306697845459
▁विश्व	-15.794066429138184
▁गो	-15.795066833496094
▁अर्थ	-15.796066284179688
▁समाज	-15.797066688537598
▁हि	-15.798067092895508
▁खो	-15.799066543579102
ाइड	-15.800066947937012
▁शिक्षा	-15.801066398620605
▁पैसा	-15.802066802978516
▁यसले	-15.80306625366211
र्फ	-15.80406665802002
टक	-15.80506706237793
▁एकदम	-15.806066513061523
मु	-15.807066917419434
▁रे	-15.808066368103027
▁व्या	-15.809066772460938
▁प्रदेश	-15.810066223144531
ण्ड	-15.811066627502441
▁भन्न	-15.812067031860352
▁अघि	-15.813066482543945
▁सक्छौँ	-15.814066886901855
▁प्लस	-15.81506633758545
▁मान	-15.81606674194336
▁उठ	-15.817066192626953
ेज	-15.818066596984863
▁कहिले	-15.819067001342773
▁प्रधान	-15.820066452026367
▁पानी	-15.821066856384277
▁चाहि	-15.822066307067871
ानीय	-15.823066711425781
▁स्थानीय	-15.824067115783691
▁तपाईँहरूले	-15.825066566467285
्दै	-15.826066970825195
ख्या	-15.827066421508789
बल	-15.8280668258667
▁केन्द्र	-15.829066276550293
सक्	-15.830066680908203
ल्ने	-15.831067085266113
▁कहाँ	-15.832066535949707
▁सञ्च	-15.833066940307617
▁ठाउँमा	-15.834066390991211
हार	-15.835066795349121
पी	-15.836066246032715
पन	-15.837066650390625
▁भू	-15.838067054748535
▁आउने	-15.839066505432129
मिक	-15.840066909790039
ीत	-15.841066360473633
▁नेत	-15.842066764831543
▁फर	-15.843066215515137
पो	-15.844066619873047
▁उहाँले	-15.845067024230957
ियाँ	-15.84606647491455
दो	-15.847066879272461
▁सोच	-15.848066329956055
▁अभि	-15.849066734313965
▁क्षेत्रमा	-15.850066184997559
▁बाँ	-15.851066589355469
▁रुपियाँ	-15.852066993713379
▁सक्ने	-15.853066444396973
▁शु	-15.854066848754883
▁थ्री	-15.855066299438477
▁भो	-15.856066703796387
▁उत्तर	-15.857067108154297
▁अप्सन	-15.85806655883789
तन	-15.8590669631958
▁महत्त्व	-15.860066413879395
पुर	-15.861066818237305
▁गर्नुपर्ने	-15.862066268920898
बार	-15.863066673278809
▁प्रभाव	-15.864067077636719
त्ता	-15.865066528320312
बि	-15.866066932678223
साय	-15.867066383361816
▁भाग	-15.868066787719727
▁गर्नुपर्छ	-15.86906623840332
हा	-15.87006664276123
▁जाने	-15.87106704711914
▁ध्यान	-15.872066497802734
▁उद	-15.873066902160645
▁गाउँ	-15.874066352844238
▁भारत	-15.875066757202148
ीले	-15.876066207885742
▁जनता	-15.877066612243652
▁नाग	-15.878067016601562
▁त्यसैले	-15.879066467285156
▁विषयमा	-15.880066871643066
▁हरे	-15.88106632232666
▁अस्	-15.88206672668457
इन्ट	-15.883066177368164
▁त्यसले	-15.884066581726074
नाले	-15.885066986083984
▁साम	-15.886066436767578
▁फाइभ	-15.887066841125488
▁सबैभन्दा	-15.888066291809082
▁नेपालमा	-15.889066696166992
छाडि	-15.890067100524902
▁भइस	-15.891066551208496
▁योग	-15.892066955566406
▁सहयोग	-15.89306640625
चन	-15.89406681060791
चि	-15.895066261291504
▁पर्छ	-15.896066665649414
▁पछाडि	-15.897067070007324
शा	-15.898066520690918
▁मत	-15.899066925048828
▁हरेक	-15.900066375732422
▁आर्थ	-15.901066780090332
ाउनु	-15.902066230773926
▁पार	-15.903066635131836
▁परिवर्	-15.904067039489746
▁आर्थिक	-15.90506649017334
त्मक	-15.90606689453125
ल्ट	-15.907066345214844
▁उसले	-15.908066749572754
सि	-15.909066200256348
तन्त्र	-15.910066604614258
▁सक	-15.911067008972168
▁मुख	-15.912066459655762
▁खालको	-15.913066864013672
ाइस	-15.914066314697266
▁बाहिर	-15.915066719055176
▁किसिम	-15.91606616973877
▁सिक्	-15.91706657409668
▁हुन्छन्	-15.91806697845459
▁विद्यार्थ	-15.919066429138184
▁हुनेछ	-15.920066833496094
यौँ	-15.921066284179688
्रि	-15.922066688537598
▁साथीहरू	-15.923067092895508
▁माथि	-15.924066543579102
▁पच	-15.925066947937012
मन्त्री	-15.926066398620605
करण	-15.927066802978516
▁राज्य	-15.92806625366211
▁जानकारी	-15.92906665802002
▁जोड	-15.93006706237793
▁सेवा	-15.931066513061523
▁नाइ	-15.932066917419434
ेँ	-15.933066368103027
स्कार	-15.934066772460938
क्षण	-15.935066223144531
▁निर्वा	-15.936066627502441
▁पोइन्ट	-15.937067031860352
▁शा	-15.938066482543945
▁जिल्ला	-15.939066886901855
ल्छ	-15.94006633758545
▁लाइ	-15.94106674194336
▁अन	-15.942066192626953
▁गएर	-15.943066596984863
षण	-15.944067001342773
▁प्रो	-15.945066452026367
▁अनुसार	-15.946066856384277
न्ज	-15.947066307067871
ेव	-15.948066711425781
▁काठ	-15.949067115783691
▁चाहन्छु	-15.950066566467285
र्भ	-15.951066970825195
▁अन्य	-15.952066421508789
▁थिएँ	-15.9530668258667
ेद	-15.954066276550293
▁गा	-15.955066680908203
▁नागरिक	-15.956067085266113
ाको	-15.957066535949707
्वास	-15.958066940307617
▁उत्पा	-15.959066390991211
न्या	-15.960066795349121
▁होस्	-15.961066246032715
ब्द	-15.962066650390625
▁बिच	-15.963067054748535
▁यता	-15.964066505432129
▁मन्त्र	-15.965066909790039
रिका	-15.966066360473633
▁पि	-15.967066764831543
ल्लो	-15.968066215515137
श्च	-15.969066619873047
▁सोध	-15.970067024230957
▁प्रतिश	-15.97106647491455
▁सू	-15.972066879272461
▁नेपालको	-15.973066329956055
▁एट	-15.974066734313965
▁बी	-15.975066184997559
▁प्रतिशत	-15.976066589355469
▁दिनमा	-15.977066993713379
▁गर्नुभयो	-15.978066444396973
▁गरौँ	-15.979066848754883
्यास	-15.980066299438477
▁पूर्	-15.981066703796387
▁अवस्थामा	-15.982067108154297
भाग	-15.98306655883789
▁महिला	-15.9840669631958
कर्	-15.985066413879395
िसाब	-15.986066818237305
नाइ	-15.987066268920898
डौँ	-15.988066673278809
पना	-15.989067077636719
▁भनेपछि	-15.990066528320312
▁जसले	-15.991066932678223
म्ब	-15.992066383361816
चना	-15.993066787719727
▁भाष	-15.99406623840332
▁पर्ने	-15.99506664276123
▁फोर	-15.99606704711914
नौँ	-15.997066497802734
▁वृ	-15.998066902160645
नेको	-15.999066352844238
पन्न	-16.00006675720215
्रेस	-16.001066207885742
▁बिस	-16.00206756591797
▁पुरा	-16.003067016601562
▁भनिन्छ	-16.004066467285156
▁गरिदि	-16.00506591796875
▁परिवर्तन	-16.006067276000977
▁राष्ट्रिय	-16.00706672668457
▁हुँदै	-16.008066177368164
▁काठमा	-16.00906753540039
▁भइरहेको	-16.010066986083984
कु	-16.011066436767578
▁तरिका	-16.012065887451172
▁आउ	-16.0130672454834
न्ने	-16.014066696166992
▁काठमाडौँ	-16.015066146850586
ाइट	-16.016067504882812
ाली	-16.017066955566406
▁अन्तर्	-16.01806640625
न्ध्र	-16.019065856933594
गर	-16.02006721496582
▁जाँ	-16.021066665649414
▁टू	-16.022066116333008
सु	-16.023067474365234
ामी	-16.024066925048828
▁अझै	-16.025066375732422
▁धर्म	-16.026065826416016
▁सङ्ग	-16.027067184448242
सद	-16.028066635131836
िरो	-16.02906608581543
तिको	-16.030067443847656
▁हिसाब	-16.03106689453125
▁फर्	-16.032066345214844
▁संवि	-16.033065795898438
▁साह	-16.034067153930664
▁संविधान	-16.035066604614258
एँ	-16.03606605529785
▁भन्दै	-16.037067413330078
▁भएन	-16.038066864013672
वेश	-16.039066314697266
▁चिज	-16.04006576538086
धन	-16.041067123413086
▁सुर	-16.04206657409668
यु	-16.043066024780273
▁कोही	-16.0440673828125
▁समेत	-16.045066833496094
▁विचार	-16.046066284179688
▁पन्ध्र	-16.04706573486328
▁ना	-16.048067092895508
▁बनाउने	-16.0490665435791
▁सानो	-16.050065994262695
▁इज	-16.051067352294922
ाटो	-16.052066802978516
▁व्यवसाय	-16.05306625366211
▁शब्द	-16.054065704345703
चर	-16.05506706237793
्ज	-16.056066513061523
लाइ	-16.057065963745117
▁कानु	-16.058067321777344
▁गर्दछ	-16.059066772460938
क्रिया	-16.06006622314453
कमा	-16.061067581176758
▁समयमा	-16.06206703186035
टर	-16.063066482543945
▁नम	-16.06406593322754
▁विदेश	-16.065067291259766
▁भाइ	-16.06606674194336
▁चा	-16.067066192626953
▁पार्ट	-16.06806755065918
मुख	-16.069067001342773
ीहरूको	-16.070066452026367
र्य	-16.07106590270996
ेड	-16.072067260742188
▁न्य	-16.07306671142578
▁आई	-16.074066162109375
टै	-16.0750675201416
ब्ब	-16.076066970825195
▁तह	-16.07706642150879
वे	-16.078065872192383
एन	-16.07906723022461
ट्	-16.080066680908203
▁जन्	-16.081066131591797
र्ड	-16.082067489624023
पालिका	-16.083066940307617
▁प्रत्य	-16.08406639099121
धिक	-16.085065841674805
▁बाई	-16.08606719970703
▁प्रधानमन्त्री	-16.087066650390625
स्रो	-16.08806610107422
▁पठ	-16.089067459106445
ेक्ट	-16.09006690979004
▁सफल	-16.091066360473633
▁अम	-16.092065811157227
▁एका	-16.093067169189453
▁एक्	-16.094066619873047
▁ज्ञ	-16.09506607055664
▁सी	-16.096067428588867
र्न	-16.09706687927246
▁गर्छु	-16.098066329956055
▁बजार	-16.09906578063965
ह्र	-16.100067138671875
▁कसै	-16.10106658935547
ष्टि	-16.102066040039062
▁बाह्र	-16.10306739807129
▁आउँ	-16.104066848754883
▁समाचार	-16.105066299438477
सँगै	-16.10606575012207
ालन	-16.107067108154297
पोर्ट	-16.10806655883789
दाय	-16.109066009521484
▁दोस्रो	-16.11006736755371
्युब	-16.111066818237305
ीहरूले	-16.1120662689209
▁निम्	-16.113065719604492
▁फरक	-16.11406707763672
▁स्क	-16.115066528320312
▁सामाजिक	-16.116065979003906
▁रहेका	-16.117067337036133
▁चु	-16.118066787719727
▁मुख्य	-16.11906623840332
▁परिवार	-16.120067596435547
▁घरमा	-16.12106704711914
िटर	-16.122066497802734
▁हुनु	-16.123065948486328
तामा	-16.124067306518555
▁दुईवटा	-16.12506675720215
ीलाई	-16.126066207885742
▁टि	-16.12706756591797
ल्स	-16.128067016601562
▁सजि	-16.129066467285156
ल्न	-16.13006591796875
र्ग	-16.131067276000977
▁औ	-16.13206672668457
लन	-16.133066177368164
ीहरूलाई	-16.13406753540039
▁बनाउन	-16.135066986083984
पति	-16.136066436767578
▁खर्च	-16.137065887451172
ाउँछ	-16.1380672454834
्याम	-16.139066696166992
यत	-16.140066146850586
▁ब्याङ्क	-16.141067504882812
▁कल	-16.142066955566406
▁महत्त्वपूर्ण	-16.14306640625
▁दल	-16.144065856933594
▁नगर	-16.14506721496582
खा	-16.146066665649414
क्वा	-16.147066116333008
लब	-16.148067474365234
▁जिरो	-16.149066925048828
ृत	-16.150066375732422
▁जना	-16.151065826416016
ुरी	-16.152067184448242
▁ते	-16.153066635131836
िरहेको	-16.15406608581543
▁उन्	-16.155067443847656
बा	-16.15606689453125
▁भनौँ	-16.157066345214844
▁अनुभ	-16.158065795898438
▁निर्ण	-16.159067153930664
▁पक्ष	-16.160066604614258
▁सिक्स	-16.16106605529785
▁कृष	-16.162067413330078
▁सही	-16.163066864013672
▁उनीहरूले	-16.164066314697266
▁बिर	-16.16506576538086
▁दुः	-16.166067123413086
लु	-16.16706657409668
लेर	-16.168066024780273
प्रति	-16.1690673828125
च्छ	-16.170066833496094
▁उत्पादन	-16.171066284179688
▁दुःख	-16.17206573486328
्रम	-16.173067092895508
▁एम	-16.1740665435791
भर	-16.175065994262695
ेम	-16.176067352294922
▁जहाँ	-16.177066802978516
▁था	-16.17806625366211
▁सन्द	-16.179065704345703
▁छा	-16.18006706237793
▁भेट	-16.181066513061523
▁भाव	-16.182065963745117
ष्ठ	-16.183067321777344
▁सद	-16.184066772460938
▁बाटो	-16.18506622314453
दिन	-16.186067581176758
▁पत्र	-16.18706703186035
▁दर्श	-16.188066482543945
लत	-16.18906593322754
ीति	-16.190067291259766
ेन्टी	-16.19106674194336
▁भन्छौँ	-16.192066192626953
क्टर	-16.19306755065918
▁भनेदेखि	-16.194067001342773
लिङ	-16.195066452026367
वाह	-16.19606590270996
क्वायर	-16.197067260742188
▁विद्यालय	-16.19806671142578
रहेका	-16.199066162109375
▁तपाईँहरूलाई	-16.2000675201416
▁वै	-16.201066970825195
▁खेल	-16.20206642150879
▁मन्त्रालय	-16.203065872192383
कृति	-16.20406723022461
▁लोक	-16.205066680908203
▁विश्वास	-16.206066131591797
रु	-16.207067489624023
▁ऊ	-16.208066940307617
▁गरिस	-16.20906639099121
ृत्व	-16.210065841674805
▁म्या	-16.21106719970703
▁सर्व	-16.212066650390625
▁मौ	-16.21306610107422
▁अहिलेको	-16.214067459106445
हरी	-16.21506690979004
▁सेभ	-16.216066360473633
▁गीत	-16.217065811157227
फ्ट	-16.218067169189453
▁शरी	-16.219066619873047
▁हेरौँ	-16.22006607055664
▁निर्णय	-16.221067428588867
▁राख्	-16.22206687927246
▁एन्ड	-16.223066329956055
▁नेतृत्व	-16.22406578063965
▁समिति	-16.225067138671875
▁व्याप	-16.22606658935547
एपछि	-16.227066040039062
▁भूमि	-16.22806739807129
▁त्यसरी	-16.229066848754883
स्थित	-16.230066299438477
डिया	-16.23106575012207
▁कुरो	-16.232067108154297
▁सक्दैन	-16.23306655883789
▁गत	-16.234066009521484
ल्ड	-16.23506736755371
▁स्प	-16.236066818237305
▁एस	-16.2370662689209
ध्ये	-16.238065719604492
▁इन	-16.23906707763672
▁ज्ञान	-16.240066528320312
▁अठ	-16.241065979003906
▁सङ्घ	-16.242067337036133
▁स्क्वायर	-16.243066787719727
▁सम्पूर्ण	-16.24406623840332
▁पचास	-16.245067596435547
▁गरिन्छ	-16.24606704711914
समा	-16.247066497802734
िल	-16.248065948486328
हित	-16.249067306518555
▁चला	-16.25006675720215
▁उनले	-16.251066207885742
▁नहु	-16.25206756591797
▁प्रहरी	-16.253067016601562
▁हुनुपर्छ	-16.254066467285156
▁जीवनमा	-16.25506591796875
कको	-16.256067276000977
▁अरे	-16.25706672668457
▁बह	-16.258066177368164
लब्	-16.25906753540039
▁यिन	-16.260066986083984
▁नीति	-16.261066436767578
▁खास	-16.262065887451172
िएको	-16.2630672454834
▁शक्ति	-16.264066696166992
कम	-16.265066146850586
▁अध्ययन	-16.266067504882812
▁उसको	-16.267066955566406
▁सेयर	-16.26806640625
लुक	-16.269065856933594
▁पर्स	-16.27006721496582
ारो	-16.271066665649414
▁बाल	-16.272066116333008
म्भ	-16.273067474365234
ून्य	-16.274066925048828
फा	-16.275066375732422
▁अर्था	-16.276065826416016
▁लगानी	-16.277067184448242
वरण	-16.278066635131836
रोध	-16.27906608581543
▁योजना	-16.280067443847656
ष्य	-16.28106689453125
▁अङ्ग	-16.282066345214844
▁बेलामा	-16.283065795898438
▁उपलब्	-16.284067153930664
▁माग	-16.285066604614258
द्वार	-16.28606605529785
▁अभ	-16.287067413330078
▁गएको	-16.288066864013672
▁ग्रह	-16.289066314697266
▁शून्य	-16.29006576538086
▁यसै	-16.291067123413086
▁बजेट	-16.29206657409668
▁अर्थात्	-16.293066024780273
▁गरेँ	-16.2940673828125
▁साइ	-16.295066833496094
▁न्या	-16.296066284179688
ल्प	-16.29706573486328
लेको	-16.298067092895508
ात्मक	-16.2990665435791
▁ट्व	-16.300065994262695
▁यस्ता	-16.301067352294922
▁वस्तु	-16.302066802978516
स्य	-16.30306625366211
▁गुरु	-16.304065704345703
ङ्गल	-16.30506706237793
विधि	-16.306066513061523
ारा	-16.307065963745117
दी	-16.308067321777344
▁बाँकी	-16.309066772460938
▁राजनीतिक	-16.31006622314453
ङ्ग्रेस	-16.311067581176758
क्सन	-16.31206703186035
▁रोग	-16.313066482543945
▁प्रमुख	-16.31406593322754
▁क्ला	-16.315067291259766
हरूका	-16.31606674194336
▁नमस्कार	-16.317066192626953
ानमा	-16.31806755065918
पु	-16.319067001342773
▁युट	-16.320066452026367
▁छल	-16.32106590270996
नाइस	-16.322067260742188
▁तल	-16.32306671142578
▁मुलुक	-16.324066162109375
िरा	-16.3250675201416
▁फर्म	-16.326066970825195
▁संस्था	-16.32706642150879
▁उहाँको	-16.328065872192383
▁महा	-16.32906723022461
▁सङ्ख्या	-16.330066680908203
▁चर्च	-16.331066131591797
▁कन्ट	-16.332067489624023
▁सम्झ	-16.333066940307617
▁मूल्य	-16.33406639099121
▁आमा	-16.335065841674805
▁कम्	-16.33606719970703
▁उन्नाइस	-16.337066650390625
▁निम्ति	-16.33806610107422
▁हात	-16.339067459106445
र्ता	-16.34006690979004
ाएको	-16.341066360473633
▁कसैले	-16.342065811157227
▁प्रक्रिया	-16.343067169189453
▁अत्य	-16.344066619873047
स्क	-16.34506607055664
▁तयार	-16.346067428588867
न्थ्यो	-16.34706687927246
▁खुसी	-16.348066329956055
▁लगायत	-16.34906578063965
▁अल	-16.350067138671875
▁इक्	-16.35106658935547
▁गरिरहेको	-16.352066040039062
▁आँ	-16.35306739807129
▁हिसाबले	-16.354066848754883
राख	-16.355066299438477
शी	-16.35606575012207
▁सामान्य	-16.357067108154297
ग्री	-16.35806655883789
▁सन्त	-16.359066009521484
▁स्वागत	-16.36006736755371
▁तपाईँहरू	-16.361066818237305
▁दृ	-16.3620662689209
▁किसिमको	-16.363065719604492
▁सिका	-16.36406707763672
▁विज्ञ	-16.365066528320312
▁स्था	-16.366065979003906
▁यस्तै	-16.367067337036133
▁अधिकार	-16.368066787719727
▁एज	-16.36906623840332
▁उनीहरूको	-16.370067596435547
▁ति	-16.37106704711914
▁लागेको	-16.372066497802734
▁आधारमा	-16.373065948486328
▁नियम	-16.374067306518555
▁संसार	-16.37506675720215
रले	-16.376066207885742
त्या	-16.37706756591797
र्ने	-16.378067016601562
▁बिह	-16.379066467285156
▁पर्सेन्ट	-16.38006591796875
▁गयो	-16.381067276000977
▁प्रस्तु	-16.38206672668457
ानको	-16.383066177368164
▁सुख	-16.38406753540039
▁हिँ	-16.385066986083984
▁निकै	-16.386066436767578
▁गर्छन्	-16.387065887451172
▁पाठ	-16.3880672454834
▁यात्र	-16.389066696166992
▁धन्य	-16.390066146850586
▁स्कुल	-16.391067504882812
▁थिएन	-16.392066955566406
▁कोरो	-16.39306640625
▁लामो	-16.394065856933594
▁आफूलाई	-16.39506721496582
▁गुण	-16.396066665649414
▁चे	-16.397066116333008
▁ट्रा	-16.398067474365234
▁मन्त्री	-16.399066925048828
वै	-16.400066375732422
▁पूर्व	-16.401065826416016
्रेड	-16.402067184448242
▁संर	-16.403066635131836
जु	-16.40406608581543
पर	-16.405067443847656
ठी	-16.40606689453125
▁प्रया	-16.407066345214844
▁कन्	-16.408065795898438
ूह	-16.409067153930664
िकल	-16.410066604614258
्दा	-16.41106605529785
▁आफ्नै	-16.412067413330078
▁आर	-16.413066864013672
▁एउटै	-16.414066314697266
िँदैन	-16.41506576538086
ट्टि	-16.416067123413086
▁युनि	-16.41706657409668
सो	-16.418066024780273
▁लाग्यो	-16.4190673828125
▁परी	-16.420066833496094
▁अत्यन्त	-16.421066284179688
▁सन्	-16.42206573486328
▁बेस	-16.423067092895508
▁कृषि	-16.4240665435791
▁सड	-16.425065994262695
▁टाइम	-16.426067352294922
्याङ्क	-16.427066802978516
▁धन्यवाद	-16.42806625366211
उन्ट	-16.429065704345703
स्तार	-16.43006706237793
व्य	-16.431066513061523
▁उद्	-16.432065963745117
▁युट्युब	-16.433067321777344
▁गर्नुहुन्छ	-16.434066772460938
▁वृद्धि	-16.43506622314453
▁स्थिति	-16.436067581176758
▁बै	-16.43706703186035
▁हाम्रा	-16.438066482543945
▁सम्बन्धित	-16.43906593322754
▁सम्भाव	-16.440067291259766
▁निर्वाचन	-16.44106674194336
▁कोरोना	-16.442066192626953
▁सङ्क्रम	-16.44306755065918
▁तपाईँहरूको	-16.444067001342773
▁थप	-16.445066452026367
क्कै	-16.44606590270996
▁आफूले	-16.447067260742188
▁परेको	-16.44806671142578
▁प्रकारको	-16.449066162109375
▁व्यवस्थापन	-16.4500675201416
जो	-16.451066970825195
▁गर्नुभएको	-16.45206642150879
▁पच्च	-16.453065872192383
ोटो	-16.45406723022461
▁छलफल	-16.455066680908203
चित	-16.456066131591797
▁सम्बन्धी	-16.457067489624023
▁रोज	-16.458066940307617
लै	-16.45906639099121
▁भग	-16.460065841674805
्योग	-16.46106719970703
लेट	-16.462066650390625
पट्टि	-16.46306610107422
▁पच्चिस	-16.464067459106445
▁गठ	-16.46506690979004
ोटि	-16.466066360473633
कारात्मक	-16.467065811157227
▁दिन्छ	-16.468067169189453
निङ	-16.469066619873047
▁सार्व	-16.47006607055664
▁बिचमा	-16.471067428588867
▁भोलि	-16.47206687927246
▁सजिलो	-16.473066329956055
▁बुझ्	-16.47406578063965
▁रिस	-16.475067138671875
▁सरकारी	-16.47606658935547
▁हेर्न	-16.477066040039062
▁हेर्ने	-16.47806739807129
▁हिज	-16.479066848754883
▁अनुभव	-16.480066299438477
▁सञ्चालन	-16.48106575012207
सको	-16.482067108154297
न्थ	-16.48306655883789
▁डा	-16.484066009521484
▁कार्यालय	-16.48506736755371
▁कतिप	-16.486066818237305
▁श्री	-16.4870662689209
▁साथै	-16.488065719604492
यम	-16.48906707763672
▁आएर	-16.490066528320312
▁घु	-16.491065979003906
निधि	-16.492067337036133
द्वारा	-16.493066787719727
मी	-16.49406623840332
▁युज	-16.495067596435547
▁ट्वेन्टी	-16.49606704711914
▁प्रेम	-16.497066497802734
पता	-16.498065948486328
ाइब	-16.499067306518555
ध्या	-16.50006675720215
▁लक्ष	-16.501066207885742
▁सदस्य	-16.50206756591797
▁राजनीति	-16.503067016601562
नेर	-16.504066467285156
्रै	-16.50506591796875
▁भित्र	-16.506067276000977
▁त्यसो	-16.50706672668457
▁शिक्ष	-16.508066177368164
▁कुरामा	-16.50906753540039
▁देखिएको	-16.510066986083984
ऱ्यौँ	-16.511066436767578
▁लाग्	-16.512065887451172
▁खाना	-16.5130672454834
▁सां	-16.514066696166992
▁कम्पनी	-16.515066146850586
▁प्रयास	-16.516067504882812
▁आग	-16.517066955566406
▁थाले	-16.51806640625
▁वर्षको	-16.519065856933594
▁पे	-16.52006721496582
▁लिन	-16.521066665649414
िटी	-16.522066116333008
तीय	-16.523067474365234
हीँ	-16.524066925048828
▁सरकारको	-16.525066375732422
▁कानुन	-16.526065826416016
▁तिनवटा	-16.527067184448242
न्टा	-16.528066635131836
काश	-16.52906608581543
▁जसरी	-16.530067443847656
▁बनाइ	-16.53106689453125
मध्ये	-16.532066345214844
▁पू	-16.533065795898438
ल्नु	-16.534067153930664
▁कतिपय	-16.535066604614258
▁गर्नुहोला	-16.53606605529785
लेख	-16.537067413330078
▁नर	-16.538066864013672
▁भन्नु	-16.539066314697266
▁हिँड	-16.54006576538086
▁संसद	-16.541067123413086
▁जन्म	-16.54206657409668
▁व्यापार	-16.543066024780273
▁एन	-16.5440673828125
▁सुरक्षा	-16.545066833496094
▁सँग	-16.546066284179688
▁अस्पता	-16.54706573486328
▁गति	-16.548067092895508
▁अन्ति	-16.5490665435791
नाव	-16.550065994262695
स्थिति	-16.551067352294922
हो	-16.552066802978516
▁भु	-16.55306625366211
▁सत्ता	-16.554065704345703
ुदाय	-16.55506706237793
▁संस्	-16.556066513061523
स्त्र	-16.557065963745117
तर्फ	-16.558067321777344
म्मा	-16.559066772460938
▁शुभ	-16.56006622314453
▁वास्त	-16.561067581176758
▁बन्द	-16.56206703186035
▁भर्	-16.563066482543945
एस	-16.56406593322754
▁पी	-16.565067291259766
▁करो	-16.56606674194336
▁लु	-16.567066192626953
▁तिस	-16.56806755065918
▁पाव	-16.569067001342773
▁हुँदा	-16.570066452026367
डिङ	-16.57106590270996
ुला	-16.572067260742188
धारण	-16.57306671142578
धी	-16.574066162109375
लाइन	-16.5750675201416
▁उल्	-16.576066970825195
▁जु	-16.57706642150879
▁जग्	-16.578065872192383
ब्बे	-16.57906723022461
▁किनकि	-16.580066680908203
▁गर्नको	-16.581066131591797
▁अहिलेसम्म	-16.582067489624023
दैछ	-16.583066940307617
यात	-16.58406639099121
हत्तर	-16.585065841674805
▁फुल	-16.58606719970703
▁राख्ने	-16.587066650390625
चा	-16.58806610107422
सक्छ	-16.589067459106445
▁सार्वज	-16.59006690979004
▁पछिल्लो	-16.591066360473633
▁सार्वजनिक	-16.592065811157227
▁हिजो	-16.593067169189453
▁उच्च	-16.594066619873047
▁वास्तव	-16.59506607055664
लित	-16.596067428588867
ासन	-16.59706687927246
टो	-16.598066329956055
▁सेन्ट	-16.59906578063965
बिस	-16.600067138671875
वृ	-16.60106658935547
मेर	-16.602066040039062
▁सन्दर्भ	-16.60306739807129
▁सङ्क	-16.604066848754883
बु	-16.605066299438477
▁इट	-16.60606575012207
▁मानव	-16.607067108154297
▁समूह	-16.60806655883789
▁सुरुमा	-16.609066009521484
▁तरिकाले	-16.61006736755371
▁व्यवहार	-16.611066818237305
घार	-16.6120662689209
▁आइस	-16.613065719604492
▁बनाएर	-16.61406707763672
चोटि	-16.615066528320312
▁प्रत्येक	-16.616065979003906
▁अनुस	-16.617067337036133
▁करोड	-16.618066787719727
शु	-16.61906623840332
▁देशको	-16.620067596435547
▁छोड	-16.62106704711914
▁हाल	-16.622066497802734
र्या	-16.623065948486328
▁माध्य	-16.624067306518555
▁भूमिका	-16.62506675720215
▁गाह	-16.626066207885742
▁पहिले	-16.62706756591797
▁बैठ	-16.628067016601562
▁एघार	-16.629066467285156
न्सर	-16.63006591796875
▁फल	-16.631067276000977
नामा	-16.63206672668457
▁भाषा	-16.633066177368164
▁लाइन	-16.63406753540039
▁दा	-16.635066986083984
▁आफ्	-16.636066436767578
▁पर्य	-16.637065887451172
▁पाउँ	-16.6380672454834
तो	-16.639066696166992
क्राइब	-16.640066146850586
▁बच्च	-16.641067504882812
▁पाउने	-16.642066955566406
▁आएका	-16.64306640625
▁खाने	-16.644065856933594
▁जस्ता	-16.64506721496582
▁पद	-16.646066665649414
▁फर्स्ट	-16.647066116333008
▁चौध	-16.648067474365234
▁नस	-16.649066925048828
▁अवस	-16.650066375732422
ाहरूको	-16.651065826416016
▁सब्स	-16.652067184448242
र्टी	-16.653066635131836
वादी	-16.65406608581543
▁कमा	-16.655067443847656
▁छैनन्	-16.65606689453125
▁भएपछि	-16.657066345214844
▁अभ्यास	-16.658065795898438
र्ष	-16.659067153930664
▁करि	-16.660066604614258
▁तयारी	-16.66106605529785
▁हुनाले	-16.662067413330078
▁क्लि	-16.663066864013672
तै	-16.664066314697266
▁आउन	-16.66506576538086
बी	-16.666067123413086
केका	-16.66706657409668
टि	-16.668066024780273
▁क्षम	-16.6690673828125
▁जग्गा	-16.670066833496094
▁जर	-16.671066284179688
▁पुरै	-16.67206573486328
बारे	-16.673067092895508
▁आफ्ना	-16.6740665435791
▁उपा	-16.675065994262695
ेस्ट	-16.676067352294922
▁हामीसँग	-16.677066802978516
▁क्रममा	-16.67806625366211
नुहुनेछ	-16.679065704345703
▁गाह्रो	-16.68006706237793
▁निर	-16.681066513061523
देश्य	-16.682065963745117
ोधन	-16.683067321777344
▁कुरालाई	-16.684066772460938
▁घो	-16.68506622314453
▁टो	-16.686067581176758
▁उहाँहरूले	-16.68706703186035
▁मृत	-16.688066482543945
▁प्ला	-16.68906593322754
▁अन्तर्गत	-16.690067291259766
▁आदि	-16.69106674194336
▁नाइन	-16.692066192626953
▁उद्देश्य	-16.69306755065918
▁उद्योग	-16.694067001342773
▁प्राप्	-16.695066452026367
दिनु	-16.69606590270996
न्तर	-16.697067260742188
▁लो	-16.69806671142578
▁दार्	-16.699066162109375
▁उपचार	-16.7000675201416
मको	-16.701066970825195
▁अध्यक्ष	-16.70206642150879
▁बनेको	-16.703065872192383
▁इन्टर	-16.70406723022461
▁पुन	-16.705066680908203
▁जिम्म	-16.706066131591797
▁सम्भावना	-16.707067489624023
द्धा	-16.708066940307617
▁अलि	-16.70906639099121
▁चर्चा	-16.710065841674805
▁पूर्ण	-16.71106719970703
▁पाउ	-16.712066650390625
बाइ	-16.71306610107422
▁आयोग	-16.714067459106445
▁एकजना	-16.71506690979004
▁थोर	-16.716066360473633
▁टेलि	-16.717065811157227
लामा	-16.718067169189453
▁आफै	-16.719066619873047
▁बन्	-16.72006607055664
▁उपलब्ध	-16.721067428588867
▁एड	-16.72206687927246
▁थु	-16.723066329956055
पको	-16.72406578063965
▁सबैलाई	-16.725067138671875
▁अति	-16.72606658935547
▁सब्सक्राइब	-16.727066040039062
माथि	-16.72806739807129
▁गइ	-16.729066848754883
▁भनाइ	-16.730066299438477
▁मुद्	-16.73106575012207
▁हुनसक्छ	-16.732067108154297
▁हुन्थ्यो	-16.73306655883789
▁बिमा	-16.734066009521484
▁लेख्	-16.73506736755371
▁दे	-16.736066818237305
▁देख्न	-16.7370662689209
▁थोरै	-16.738065719604492
▁आम	-16.73906707763672
▁जोडि	-16.740066528320312
तको	-16.741065979003906
ताले	-16.742067337036133
▁नभएको	-16.743066787719727
म्स	-16.74406623840332
▁विक	-16.745067596435547
▁न्याय	-16.74606704711914
▁लेख्न	-16.747066497802734
भरि	-16.748065948486328
▁पावर	-16.749067306518555
▁च्यान	-16.75006675720215
▁पूजा	-16.751066207885742
ाहरूलाई	-16.75206756591797
▁चाहिन्छ	-16.753067016601562
▁उनी	-16.754066467285156
▁समाधान	-16.75506591796875
▁मोबाइ	-16.756067276000977
▁गऱ्यौँ	-16.75706672668457
▁निर्देश	-16.758066177368164
किङ	-16.75906753540039
बद्ध	-16.760066986083984
ैनिक	-16.761066436767578
उँदै	-16.762065887451172
▁देख्	-16.7630672454834
▁कार्यक्रममा	-16.764066696166992
▁रोजग	-16.765066146850586
▁घन्टा	-16.766067504882812
डर	-16.767066955566406
ुवा	-16.76806640625
▁देशमा	-16.769065856933594
▁सके	-16.77006721496582
▁भन्नुभयो	-16.771066665649414
▁राखेर	-16.772066116333008
▁शान्ति	-16.773067474365234
▁पटक	-16.774066925048828
▁सेभेन	-16.775066375732422
▁सहभाग	-16.776065826416016
▁बरा	-16.777067184448242
▁यसो	-16.778066635131836
▁प्रस	-16.77906608581543
क्य	-16.780067443847656
नेट	-16.78106689453125
▁बस्ने	-16.782066345214844
्यान्ड	-16.783065795898438
तिस	-16.784067153930664
हास	-16.785066604614258
▁कला	-16.78606605529785
कहरू	-16.787067413330078
▁क्लास	-16.788066864013672
▁मृत्यु	-16.789066314697266
▁अनुसन्ध	-16.79006576538086
िराख	-16.791067123413086
ालो	-16.79206657409668
▁प्रण	-16.793066024780273
युक्त	-16.7940673828125
▁पर्दैन	-16.795066833496094
्याट	-16.796066284179688
▁मतलब	-16.79706573486328
ाहरूले	-16.798067092895508
▁अङ्क	-16.7990665435791
▁नराम	-16.800065994262695
▁बुद्ध	-16.801067352294922
ेरिका	-16.802066802978516
▁प्रदान	-16.80306625366211
▁कर	-16.804065704345703
म्पो	-16.80506706237793
न्दो	-16.806066513061523
▁गऱ्यो	-16.807065963745117
▁अमेरिका	-16.808067321777344
▁घटना	-16.809066772460938
न्त्रण	-16.81006622314453
▁सूर्	-16.811067581176758
▁उसलाई	-16.81206703186035
▁आवश्यकता	-16.813066482543945
▁मान्छेले	-16.81406593322754
छन्	-16.815067291259766
▁प्रस्तुत	-16.81606674194336
▁सुधार	-16.817066192626953
राष्ट्र	-16.81806755065918
क्क	-16.819067001342773
▁ऐ	-16.820066452026367
ँदा	-16.82106590270996
▁पास	-16.822067260742188
▁चौबिस	-16.82306671142578
▁अङ्ग्रे	-16.824066162109375
णी	-16.8250675201416
▁भवि	-16.826066970825195
▁हन्ड	-16.82706642150879
▁भविष्य	-16.828065872192383
▁निकाय	-16.82906723022461
सहित	-16.830066680908203
▁अठार	-16.831066131591797
▁जरुरी	-16.832067489624023
▁याद	-16.833066940307617
▁बसेर	-16.83406639099121
रहेछ	-16.835065841674805
ची	-16.83606719970703
मेल	-16.837066650390625
▁हन्ड्रेड	-16.83806610107422
▁कवि	-16.839067459106445
▁नजिक	-16.84006690979004
तिहास	-16.841066360473633
▁कले	-16.842065811157227
▁परम	-16.843067169189453
पूर्	-16.844066619873047
वल	-16.84506607055664
▁उल्लेख	-16.846067428588867
मति	-16.84706687927246
ुरुष	-16.848066329956055
डो	-16.84906578063965
सित	-16.850067138671875
त्तिकै	-16.85106658935547
▁वाता	-16.852066040039062
▁मिल्	-16.85306739807129
▁कामहरू	-16.854066848754883
▁आन्दो	-16.855066299438477
से	-16.85606575012207
पिट	-16.857067108154297
▁लिने	-16.85806655883789
▁बिहान	-16.859066009521484
▁वातावरण	-16.86006736755371
▁काट	-16.861066818237305
न्छौँ	-16.8620662689209
▁खान	-16.863065719604492
▁नम्बरमा	-16.86406707763672
▁क्रिया	-16.865066528320312
▁सुवि	-16.866065979003906
▁दिइ	-16.867067337036133
▁उनको	-16.868066787719727
शील	-16.86906623840332
▁किसान	-16.870067596435547
▁छुट	-16.87106704711914
▁राख्न	-16.872066497802734
▁पाइन्छ	-16.873065948486328
कले	-16.874067306518555
पटक	-16.87506675720215
▁बनाउनु	-16.876066207885742
▁बनाएको	-16.87706756591797
जर	-16.878067016601562
▁दार्जि	-16.879066467285156
▁काङ्ग्रेस	-16.88006591796875
ेश्व	-16.881067276000977
▁दार्जिलिङ	-16.88206672668457
दर्श	-16.883066177368164
▁स्त	-16.88406753540039
लिट	-16.885066986083984
▁जारी	-16.886066436767578
▁दुवै	-16.887065887451172
वान्	-16.8880672454834
▁अन्तिम	-16.889066696166992
▁लाग्ने	-16.890066146850586
▁इच्छ	-16.891067504882812
पमा	-16.892066955566406
वारी	-16.89306640625
▁फु	-16.894065856933594
▁फेस	-16.89506721496582
▁पृ	-16.896066665649414
▁दृष्टि	-16.897066116333008
▁फोन	-16.898067474365234
▁चालिस	-16.899066925048828
चारी	-16.900066375732422
िँदै	-16.901065826416016
▁ब्र	-16.902067184448242
▁सबैजना	-16.903066635131836
▁शै	-16.90406608581543
▁ऋ	-16.905067443847656
चान	-16.90606689453125
रिया	-16.907066345214844
▁डाइ	-16.908065795898438
▁ओके	-16.909067153930664
▁चेन्ज	-16.910066604614258
▁रकम	-16.91106605529785
कृतिक	-16.912067413330078
पत्ति	-16.913066864013672
▁पुरुष	-16.914066314697266
त्का	-16.91506576538086
तमा	-16.916067123413086
▁छिट	-16.91706657409668
▁गरिरहेका	-16.918066024780273
▁उनीहरूलाई	-16.9190673828125
▁जम्मा	-16.920066833496094
▁भगवान्	-16.921066284179688
▁कुराका	-16.92206573486328
▁स्रो	-16.923067092895508
नो	-16.9240665435791
▁नो	-16.925065994262695
ेन्ड	-16.926067352294922
▁मिन	-16.927066802978516
▁नियन्त्रण	-16.92806625366211
ंश	-16.929065704345703
तालाई	-16.93006706237793
्प	-16.931066513061523
▁भइसकेको	-16.932065963745117
▁प्रतिनिधि	-16.933067321777344
▁सबैले	-16.934066772460938
दिनँ	-16.93506622314453
ञ्ज	-16.936067581176758
▁सहज	-16.93706703186035
केन्ड	-16.938066482543945
▁सभा	-16.93906593322754
भग	-16.940067291259766
▁पेस	-16.94106674194336
▁मुद्दा	-16.942066192626953
▁लगभग	-16.94306755065918
▁तेस	-16.944067001342773
▁समुदाय	-16.945066452026367
धैँ	-16.94606590270996
▁सभ	-16.947067260742188
्ले	-16.94806671142578
▁आत्म	-16.949066162109375
▁सेकेन्ड	-16.9500675201416
▁सामान	-16.951066970825195
▁सधैँ	-16.95206642150879
▁पदा	-16.953065872192383
▁जनताको	-16.95406723022461
▁प्रमाण	-16.955066680908203
▁श्र	-16.956066131591797
नुसार	-16.957067489624023
ीर	-16.958066940307617
▁सुन्	-16.95906639099121
▁निरन्तर	-16.960065841674805
मन	-16.96106719970703
▁बराबर	-16.962066650390625
▁तेस्रो	-16.96306610107422
▁अभिय	-16.964067459106445
प्ट	-16.96506690979004
▁बुझ्न	-16.966066360473633
▁प्राप्ति	-16.967065811157227
सिस	-16.968067169189453
▁ढङ्ग	-16.969066619873047
▁मिला	-16.97006607055664
▁माध्यम	-16.971067428588867
▁थियौँ	-16.97206687927246
▁विधि	-16.973066329956055
▁कर्	-16.97406578063965
▁तेह्र	-16.975067138671875
ुनौ	-16.97606658935547
▁उमेर	-16.977066040039062
▁सोह्र	-16.97806739807129
▁साइड	-16.979066848754883
क्यो	-16.980066299438477
▁बच	-16.98106575012207
▁दैनिक	-16.982067108154297
▁आयोजना	-16.98306655883789
▁धन	-16.984066009521484
▁राइट	-16.98506736755371
▁टेलिभि	-16.986066818237305
▁मै	-16.9870662689209
▁सूर्य	-16.988065719604492
▁सिक्कि	-16.98906707763672
भो	-16.990066528320312
ियल	-16.991065979003906
▁देव	-16.992067337036133
फिक	-16.993066787719727
सिक	-16.99406623840332
अनुसार	-16.995067596435547
▁करिब	-16.99606704711914
▁डिज	-16.997066497802734
▁रहनेछ	-16.998065948486328
▁कर्मचारी	-16.999067306518555
ार्थ	-17.00006675720215
कृत	-17.001066207885742
दिने	-17.00206756591797
▁नसक्	-17.003067016601562
▁शरीर	-17.004066467285156
न्छन्	-17.00506591796875
▁इन्टु	-17.006067276000977
▁नराम्रो	-17.00706672668457
▁सौ	-17.008066177368164
▁पैँ	-17.00906753540039
▁डी	-17.010066986083984
▁डु	-17.011066436767578
हरूसँग	-17.012065887451172
माइ	-17.0130672454834
श्चित	-17.014066696166992
▁नहुने	-17.015066146850586
त्स	-17.016067504882812
▁कक्षा	-17.017066955566406
िने	-17.01806640625
खेर	-17.019065856933594
▁अवसर	-17.02006721496582
▁सबभन्दा	-17.021066665649414
▁लाइक	-17.022066116333008
पद	-17.023067474365234
▁हार्	-17.024066925048828
▁सङ्क्रमण	-17.025066375732422
ृह	-17.026065826416016
▁सक्छु	-17.027067184448242
▁रिपोर्ट	-17.028066635131836
गो	-17.02906608581543
▁चल	-17.030067443847656
डमा	-17.03106689453125
▁माया	-17.032066345214844
वन	-17.033065795898438
▁क्वा	-17.034067153930664
▁सङ्गठ	-17.035066604614258
▁कतिवटा	-17.03606605529785
▁सबैको	-17.037067413330078
▁सकारात्मक	-17.038066864013672
▁खोप	-17.039066314697266
▁सपना	-17.04006576538086
▁एमा	-17.041067123413086
▁नपा	-17.04206657409668
▁नाइन्ट	-17.043066024780273
▁कार	-17.0440673828125
ाहरण	-17.045066833496094
नुहुन्थ्यो	-17.046066284179688
▁उदाहरण	-17.04706573486328
▁कसैलाई	-17.048067092895508
▁कुराकानी	-17.0490665435791
्ल	-17.050065994262695
▁सम्पन्न	-17.051067352294922
▁माइ	-17.052066802978516
▁विभाग	-17.05306625366211
▁हटा	-17.054065704345703
्यू	-17.05506706237793
ट्टा	-17.056066513061523
▁कथा	-17.057065963745117
▁एकै	-17.058067321777344
▁वाट	-17.059066772460938
▁जल	-17.06006622314453
▁पुस्त	-17.061067581176758
▁खेती	-17.06206703186035
▁सिस्ट	-17.063066482543945
▁सूचना	-17.06406593322754
िए	-17.065067291259766
▁मोबाइल	-17.06606674194336
ित्य	-17.067066192626953
▁डिभ	-17.06806755065918
▁चुनौ	-17.069067001342773
▁तिमी	-17.070066452026367
क्षित	-17.07106590270996
कन	-17.072067260742188
▁कमेन्ट	-17.07306671142578
ल्ली	-17.074066162109375
▁युवा	-17.0750675201416
ेपछि	-17.076066970825195
▁इले	-17.07706642150879
रुद्ध	-17.078065872192383
▁सत्र	-17.07906723022461
▁जसको	-17.080066680908203
▁गण	-17.081066131591797
▁पोज	-17.082067489624023
भू	-17.083066940307617
▁अनलाइन	-17.08406639099121
▁दिएर	-17.085065841674805
▁भन्नुहुन्छ	-17.08606719970703
टमा	-17.087066650390625
▁न्यु	-17.08806610107422
▁गठबन्ध	-17.089067459106445
ाएर	-17.09006690979004
▁असर	-17.091066360473633
दर	-17.092065811157227
▁लाभ	-17.093067169189453
▁कम्प्यु	-17.094066619873047
▁वाइ	-17.09506607055664
▁एक्का	-17.096067428588867
▁नेता	-17.09706687927246
▁सन्दर्भमा	-17.098066329956055
▁अनुसन्धान	-17.09906578063965
▁अदा	-17.100067138671875
▁हेर्दाखेरि	-17.10106658935547
▁दर्शक	-17.102066040039062
▁वर्षमा	-17.10306739807129
▁सडक	-17.104066848754883
▁चिन्	-17.105066299438477
ीकरण	-17.10606575012207
▁फुट	-17.107067108154297
▁मान्छेहरू	-17.10806655883789
ेरी	-17.109066009521484
▁छोरा	-17.11006736755371
▁राम्रोसँग	-17.111066818237305
▁मजा	-17.1120662689209
स्ताव	-17.113065719604492
▁क्याम	-17.11406707763672
▁प्रवेश	-17.115066528320312
▁उहाँहरूको	-17.116065979003906
लले	-17.117067337036133
फर्म	-17.118066787719727
▁स्रोत	-17.11906623840332
चित्र	-17.120067596435547
▁यहाँबाट	-17.12106704711914
्छु	-17.122066497802734
▁ट्र	-17.123065948486328
▁जसलाई	-17.124067306518555
▁प्रविधि	-17.12506675720215
▁सुन	-17.126066207885742
▁मार्ग	-17.12706756591797
▁सकेको	-17.128067016601562
▁विद्यार्थी	-17.129066467285156
▁जनाएको	-17.13006591796875
रूप	-17.131067276000977
▁परमेश्व	-17.13206672668457
▁अदालत	-17.133066177368164
▁गुड	-17.13406753540039
▁साहित्य	-17.135066986083984
▁गराउने	-17.136066436767578
▁प्रकारका	-17.137065887451172
र्ज	-17.1380672454834
▁बढेको	-17.139066696166992
▁क्षमता	-17.140066146850586
▁लिएको	-17.141067504882812
पक्ष	-17.142066955566406
▁कतै	-17.14306640625
▁गते	-17.144065856933594
▁टेन	-17.14506721496582
▁विध	-17.146066665649414
▁बन्न	-17.147066116333008
▁अभाव	-17.148067474365234
मिन	-17.149066925048828
जाम	-17.150066375732422
▁स्वतन्त्र	-17.151065826416016
▁समृ	-17.152067184448242
वाला	-17.153066635131836
▁गलत	-17.15406608581543
▁त्यस्ता	-17.155067443847656
▁साय	-17.15606689453125
▁निजी	-17.157066345214844
▁मन्द	-17.158065795898438
▁फे	-17.159067153930664
▁उहाँलाई	-17.160066604614258
राष्ट्रिय	-17.16106605529785
▁भौ	-17.162067413330078
▁नगरपालिका	-17.163066864013672
▁दर	-17.164066314697266
ड्	-17.16506576538086
राज	-17.166067123413086
िन्छ	-17.16706657409668
▁सांसद	-17.168066024780273
ठो	-17.1690673828125
जोर	-17.170066833496094
▁पोख	-17.171066284179688
▁दुर्	-17.17206573486328
▁सक्छन्	-17.173067092895508
▁उपस्थित	-17.1740665435791
▁विवाद	-17.175065994262695
▁बिस्तार	-17.176067352294922
▁चारवटा	-17.177066802978516
▁प्रकाश	-17.17806625366211
▁सुनि	-17.179065704345703
▁सँगसँगै	-17.18006706237793
▁क्व	-17.181066513061523
▁पार्टीको	-17.182065963745117
खर	-17.183067321777344
नै	-17.184066772460938
▁साल	-17.18506622314453
▁पश्च	-17.186067581176758
नेस	-17.18706703186035
▁गरिसकेपछि	-17.188066482543945
र्मा	-17.18906593322754
लहरू	-17.190067291259766
आर	-17.19106674194336
▁डिग्री	-17.192066192626953
▁घोषण	-17.19306755065918
िसन	-17.194067001342773
रीको	-17.195066452026367
▁अध्या	-17.19606590270996
▁राखेको	-17.197067260742188
▁वे	-17.19806671142578
▁हेरेर	-17.199066162109375
▁बढ्दै	-17.2000675201416
ेय	-17.201066970825195
ज्ञा	-17.20206642150879
▁एप्	-17.203065872192383
▁प्राय	-17.20406723022461
लर	-17.205066680908203
▁सम्मान	-17.206066131591797
▁बङ्ग	-17.207067489624023
▁गर्द	-17.208066940307617
▁प्राथ	-17.20906639099121
लिटी	-17.210065841674805
▁आरो	-17.21106719970703
▁तत्का	-17.212066650390625
▁प्राथमिक	-17.21306610107422
वेदन	-17.214067459106445
क्रिय	-17.21506690979004
▁बिस्तारै	-17.216066360473633
्याक्स	-17.217065811157227
ाउन्ड	-17.218067169189453
▁भन्यो	-17.219066619873047
▁वाक्य	-17.22006607055664
ताका	-17.221067428588867
▁समस्य	-17.22206687927246
▁एक्काइस	-17.223066329956055
भाइ	-17.22406578063965
▁विरुद्ध	-17.225067138671875
▁तुल	-17.22606658935547
▁पाएको	-17.227066040039062
▁फर्मुला	-17.22806739807129
द्या	-17.229066848754883
▁बेच	-17.230066299438477
▁विद्यु	-17.23106575012207
्लो	-17.232067108154297
▁तो	-17.23306655883789
▁सायद	-17.234066009521484
▁गाडी	-17.23506736755371
▁संस्कृति	-17.236066818237305
रिय	-17.2370662689209
▁हिन्द	-17.238065719604492
▁बलि	-17.23906707763672
पत्र	-17.240066528320312
▁सेट	-17.241065979003906
▁गर्दैन	-17.242067337036133
ँदैन	-17.243066787719727
कर्म	-17.24406623840332
▁मिटर	-17.245067596435547
▁डो	-17.24606704711914
नाको	-17.247066497802734
▁ट्रे	-17.248065948486328
▁सकिने	-17.249067306518555
▁कमजोर	-17.25006675720215
तार	-17.251066207885742
▁भारतीय	-17.25206756591797
▁शिक्षक	-17.253067016601562
▁भन्नुहोस्	-17.254066467285156
हरूबाट	-17.25506591796875
ष्ण	-17.256067276000977
त्मा	-17.25706672668457
तु	-17.258066177368164
▁लक्ष्य	-17.25906753540039
भिड	-17.260066986083984
▁चरण	-17.261066436767578
लीन	-17.262065887451172
▁श्रे	-17.2630672454834
▁घोषणा	-17.264066696166992
हन	-17.265066146850586
▁बजारमा	-17.266067504882812
▁अन्तर्राष्ट्रिय	-17.267066955566406
▁साथी	-17.26806640625
▁चित्र	-17.269065856933594
▁किता	-17.27006721496582
▁टिम	-17.271066665649414
ानीको	-17.272066116333008
▁बताउ	-17.273067474365234
▁मान्य	-17.274066925048828
▁चिन	-17.275066375732422
▁बाइस	-17.276065826416016
▁यात्रा	-17.277067184448242
सेस	-17.278066635131836
▁थुप्र	-17.27906608581543
▁कुराको	-17.280067443847656
▁परिण	-17.28106689453125
▁तथ	-17.282066345214844
ानगर	-17.283065795898438
▁वार्	-17.284067153930664
पर्छ	-17.285066604614258
▁यहाँको	-17.28606605529785
▁जानु	-17.287067413330078
▁परिच	-17.288066864013672
▁फाइदा	-17.289066314697266
ाउँदै	-17.29006576538086
▁दक्ष	-17.291067123413086
▁बित्तिकै	-17.29206657409668
सङ्	-17.293066024780273
सनल	-17.2940673828125
▁मन्दिर	-17.295066833496094
ग्रह	-17.296066284179688
▁युव	-17.29706573486328
▁सुविधा	-17.298067092895508
▁हुनुपर्ने	-17.2990665435791
्म	-17.300065994262695
त्न	-17.301067352294922
तम	-17.302066802978516
▁डर	-17.30306625366211
▁भ्रम	-17.304065704345703
▁सक्नुहुनेछ	-17.30506706237793
▁पृथ	-17.306066513061523
िदि	-17.307065963745117
▁बढ्	-17.308067321777344
▁खेला	-17.309066772460938
▁इतिहास	-17.31006622314453
▁पुगेको	-17.311067581176758
सम	-17.31206703186035
ेवारी	-17.313066482543945
▁सङ्गीत	-17.31406593322754
▁जिम्मेवारी	-17.315067291259766
▁बिक	-17.31606674194336
▁पाउन	-17.317066192626953
ुरो	-17.31806755065918
▁परे	-17.319067001342773
▁छिटो	-17.320066452026367
▁क्लिक	-17.32106590270996
ाइदि	-17.322067260742188
▁इच्छा	-17.32306671142578
ऱ्या	-17.324066162109375
टन	-17.3250675201416
▁भन्छु	-17.326066970825195
▁महिनामा	-17.32706642150879
▁विगत	-17.328065872192383
▁आगामी	-17.32906723022461
ियो	-17.330066680908203
▁फै	-17.331066131591797
▁स्वी	-17.332067489624023
▁न्यू	-17.333066940307617
पुग	-17.33406639099121
▁कम्यु	-17.335065841674805
भव	-17.33606719970703
▁अन्त्य	-17.337066650390625
र्फत	-17.33806610107422
▁परिस्थिति	-17.339067459106445
▁दश	-17.34006690979004
▁मनमा	-17.341066360473633
दार	-17.342065811157227
▁आवा	-17.343067169189453
▁जसमा	-17.344066619873047
▁हुँदाखेरि	-17.34506607055664
▁डिफ	-17.346067428588867
ाल्यो	-17.34706687927246
▁प्ले	-17.348066329956055
▁अत्यन्तै	-17.34906578063965
▁बिज	-17.350067138671875
▁यसका	-17.35106658935547
▁सीमा	-17.352066040039062
▁स्पष्ट	-17.35306739807129
▁चलचित्र	-17.354066848754883
▁प्रस्ताव	-17.355066299438477
▁जोख	-17.35606575012207
▁भाइर	-17.357067108154297
▁घटा	-17.35806655883789
▁कन्स	-17.359066009521484
▁त्रि	-17.36006736755371
▁मध्य	-17.361066818237305
▁समाजमा	-17.3620662689209
▁सत्य	-17.363065719604492
▁ताप	-17.36406707763672
▁चुनाव	-17.365066528320312
▁इन्डिया	-17.366065979003906
▁राष्ट्रपति	-17.367067337036133
उँदा	-17.368066787719727
▁थुप्रै	-17.36906623840332
ललाई	-17.370067596435547
▁ओली	-17.37106704711914
▁किताब	-17.372066497802734
द्य	-17.373065948486328
सम्मको	-17.374067306518555
▁कृप	-17.37506675720215
▁जोखिम	-17.376066207885742
▁फिल्	-17.37706756591797
▁त्यहाँनिर	-17.378067016601562
पित	-17.379066467285156
बुक	-17.38006591796875
▁किलो	-17.381067276000977
नुभन्दा	-17.38206672668457
त्तिस	-17.383066177368164
▁कृपया	-17.38406753540039
▁व्यक्तिले	-17.385066986083984
▁कान्ति	-17.386066436767578
▁परीक्षा	-17.387065887451172
▁सवारी	-17.3880672454834
▁त्यहाँबाट	-17.389066696166992
कूल	-17.390066146850586
▁औष	-17.391067504882812
▁आश	-17.392066955566406
ेटिभ	-17.39306640625
▁बहु	-17.394065856933594
न्डर	-17.39506721496582
▁व्यक्तिको	-17.396066665649414
मत	-17.397066116333008
▁उत्त	-17.398067474365234
▁कहीँ	-17.399066925048828
▁त्र	-17.400066375732422
▁विरोध	-17.401065826416016
र्सि	-17.402067184448242
▁फिफ्ट	-17.403066635131836
▁मार्क	-17.40406608581543
▁पुरानो	-17.405067443847656
▁दर्ता	-17.40606689453125
▁सम्पर्	-17.407066345214844
स्व	-17.408065795898438
▁बसेको	-17.409067153930664
▁हेर्नु	-17.410066604614258
ढा	-17.41106605529785
▁आन्दोलन	-17.412067413330078
▁बढ्ने	-17.413066864013672
▁वर्ग	-17.414066314697266
ुप	-17.41506576538086
▁चिक	-17.416067123413086
▁ठुला	-17.41706657409668
▁जहिले	-17.418066024780273
▁चन्द्र	-17.4190673828125
▁गर्नेछौँ	-17.420066833496094
दय	-17.421066284179688
▁युट्युबमा	-17.42206573486328
िजन	-17.423067092895508
▁संश	-17.4240665435791
▁कान्तिपुर	-17.425065994262695
▁पढ्	-17.426067352294922
▁विधेय	-17.427066802978516
▁माटो	-17.42806625366211
▁परम्प	-17.429065704345703
लेसन	-17.43006706237793
र्जन	-17.431066513061523
▁पेट	-17.432065963745117
▁पूर्वा	-17.433067321777344
▁उहाँहरू	-17.434066772460938
▁स्थापना	-17.43506622314453
▁नबि	-17.436067581176758
▁अस्ति	-17.43706703186035
▁भन्नुभएको	-17.438066482543945
▁मिडिया	-17.43906593322754
▁मना	-17.440067291259766
▁साधन	-17.44106674194336
▁सिक	-17.442066192626953
▁लगायतका	-17.44306755065918
▁बुद्धि	-17.444067001342773
▁मध	-17.445066452026367
▁बनाउ	-17.44606590270996
सुस	-17.447067260742188
▁अपे	-17.44806671142578
मिट	-17.449066162109375
▁उक्त	-17.4500675201416
▁कलेज	-17.451066970825195
▁हेरि	-17.45206642150879
▁प्या	-17.453065872192383
मल	-17.45406723022461
न्व	-17.455066680908203
▁कसले	-17.456066131591797
▁उहाँहरूलाई	-17.457067489624023
िता	-17.458066940307617
▁पृथ्व	-17.45906639099121
डित	-17.460065841674805
कर्ष	-17.46106719970703
▁बहिन	-17.462066650390625
ल्क	-17.46306610107422
▁महसुस	-17.464067459106445
▁गराउन	-17.46506690979004
▁समग्र	-17.466066360473633
▁दिनु	-17.467065811157227
एम	-17.468067169189453
िका	-17.469066619873047
▁लगाउने	-17.47006607055664
▁टेलिभिजन	-17.471067428588867
▁मान्छेलाई	-17.47206687927246
ेकी	-17.473066329956055
ङ्गा	-17.47406578063965
▁जाग	-17.475067138671875
▁क्षेत्रको	-17.47606658935547
▁प्रि	-17.477066040039062
▁फोटो	-17.47806739807129
दुर	-17.479066848754883
थम	-17.480066299438477
उँछन्	-17.48106575012207
▁ढङ्गले	-17.482067108154297
▁दिनुभयो	-17.48306655883789
▁मेन	-17.484066009521484
▁कम्पन	-17.48506736755371
▁सिद्धा	-17.486066818237305
▁टेक्	-17.4870662689209
▁सिक्किम	-17.488065719604492
▁काममा	-17.48906707763672
ंह	-17.490066528320312
▁गरिने	-17.491065979003906
▁चाहनुहुन्छ	-17.492067337036133
▁लेख्ने	-17.493066787719727
▁उपभो	-17.49406623840332
▁सफलता	-17.495067596435547
▁सिद्धान्त	-17.49606704711914
िरहेका	-17.497066497802734
▁वास्तवमा	-17.498065948486328
ल्भ	-17.499067306518555
▁अस्पताल	-17.50006675720215
▁परम्परा	-17.501066207885742
▁साथमा	-17.50206756591797
▁प्राव	-17.503067016601562
▁उत्पन्न	-17.504066467285156
ल्य	-17.50506591796875
ताहरू	-17.506067276000977
▁हिमा	-17.50706672668457
▁विवाह	-17.508066177368164
▁आशा	-17.50906753540039
▁स्थानमा	-17.510066986083984
▁ब्रे	-17.511066436767578
▁चाहिने	-17.512065887451172
▁वन	-17.5130672454834
मिटर	-17.514066696166992
▁रहन्छ	-17.515066146850586
▁भे	-17.516067504882812
▁टोट	-17.517066955566406
▁प्रायः	-17.51806640625
▁भेल	-17.519065856933594
▁बार	-17.52006721496582
▁बोल्	-17.521066665649414
लग	-17.522066116333008
दिक	-17.523067474365234
▁कसैको	-17.524066925048828
▁रहने	-17.525066375732422
▁इक्व	-17.526065826416016
▁कारो	-17.527067184448242
▁चढ	-17.528066635131836
▁ड्र	-17.52906608581543
▁टाइम्स	-17.530067443847656
▁सुझ	-17.53106689453125
डेन्ट	-17.532066345214844
▁जाउँ	-17.533065795898438
▁गरेपछि	-17.534067153930664
▁बढ्न	-17.535066604614258
▁समस्याहरू	-17.53606605529785
ंसा	-17.537067413330078
पऱ्यो	-17.538066864013672
▁संस्थ	-17.539066314697266
▁शर्मा	-17.54006576538086
▁ऋण	-17.541067123413086
▁दिव	-17.54206657409668
▁मानिसहरू	-17.543066024780273
राध	-17.5440673828125
▁जाँदा	-17.545066833496094
र्जा	-17.546066284179688
▁गम्भ	-17.54706573486328
▁पढ्न	-17.548067092895508
▁युनिट	-17.5490665435791
▁खोजेको	-17.550065994262695
▁भनिएको	-17.551067352294922
▁बाध्य	-17.552066802978516
▁गम्भीर	-17.55306625366211
▁एन्सर	-17.554065704345703
▁ठ्या	-17.55506706237793
▁प्रेस	-17.556066513061523
▁गठबन्धन	-17.557065963745117
▁चलि	-17.558067321777344
नन्द	-17.559066772460938
▁मसँग	-17.56006622314453
▁कोभिड	-17.561067581176758
▁दिएका	-17.56206703186035
▁कप	-17.563066482543945
▁एकचोटि	-17.56406593322754
▁हेर्दै	-17.565067291259766
▁राह	-17.56606674194336
▁पक्कै	-17.567066192626953
▁स्ट्र	-17.56806755065918
▁भएकाले	-17.569067001342773
▁स्थान	-17.570066452026367
▁संरचना	-17.57106590270996
▁कारोबार	-17.572067260742188
▁मान्छेको	-17.57306671142578
▁वरि	-17.574066162109375
▁सिस्टम	-17.5750675201416
▁धारण	-17.576066970825195
▁सामग्री	-17.57706642150879
▁टिक	-17.578065872192383
▁हप्	-17.57906723022461
लेन्स	-17.580066680908203
▁भर्खर	-17.581066131591797
▁आवाज	-17.582067489624023
▁विज्ञान	-17.583066940307617
▁छुट्ट	-17.58406639099121
▁भौतिक	-17.585065841674805
स्कि	-17.58606719970703
▁सुन्द	-17.587066650390625
िनको	-17.58806610107422
▁क्रम	-17.589067459106445
ित्व	-17.59006690979004
पूर्व	-17.591066360473633
▁मूल्याङ्क	-17.592065811157227
▁एच	-17.593067169189453
ढी	-17.594066619873047
▁जनताले	-17.59506607055664
▁शास्त्र	-17.596067428588867
कला	-17.59706687927246
▁गौ	-17.598066329956055
▁प्रग	-17.59906578063965
▁भेल्यु	-17.600067138671875
▁ढि	-17.60106658935547
▁ब्ल	-17.602066040039062
▁भुक्त	-17.60306739807129
▁अधिकारी	-17.604066848754883
▁हर	-17.605066299438477
ग्राम	-17.60606575012207
▁बताइ	-17.607067108154297
▁लगाएर	-17.60806655883789
▁साठी	-17.609066009521484
▁पह	-17.61006736755371
▁विदेशी	-17.611066818237305
▁चाहे	-17.6120662689209
▁व्यक्तिहरू	-17.613065719604492
्यार	-17.61406707763672
▁निष्	-17.615066528320312
▁कम्प्युटर	-17.616065979003906
▁पका	-17.617067337036133
▁छोरी	-17.618066787719727
गु	-17.61906623840332
▁कमी	-17.620067596435547
▁सर्ट	-17.62106704711914
▁चुनौती	-17.622066497802734
▁संरक्षण	-17.623065948486328
वान	-17.624067306518555
▁उज	-17.62506675720215
बाटै	-17.626066207885742
▁दाह	-17.62706756591797
▁आफैँ	-17.628067016601562
जीमा	-17.629066467285156
▁बेसी	-17.63006591796875
▁साँच	-17.631067276000977
▁अर्डर	-17.63206672668457
▁बनि	-17.633066177368164
▁बाँच	-17.63406753540039
▁आनन्द	-17.635066986083984
▁त्योभन्दा	-17.636066436767578
▁निर्वाच	-17.637065887451172
वस्तु	-17.6380672454834
▁राजा	-17.639066696166992
▁परिणाम	-17.640066146850586
िकेट	-17.641067504882812
▁जाँदाखेरि	-17.642066955566406
▁जाँच	-17.64306640625
▁जीवनको	-17.644065856933594
▁चाँ	-17.64506721496582
केर	-17.646066665649414
चेत	-17.647066116333008
▁जित	-17.648067474365234
▁पर्यो	-17.649066925048828
▁मिल्छ	-17.650066375732422
्रु	-17.651065826416016
▁जनसङ्	-17.652067184448242
रेक्ट	-17.653066635131836
वृत्ति	-17.65406608581543
▁थर्टी	-17.655067443847656
▁बने	-17.65606689453125
न्द्री	-17.657066345214844
▁अवधि	-17.658065795898438
▁कम्ती	-17.659067153930664
▁कस्ता	-17.660066604614258
▁पहिचान	-17.66106605529785
▁साध	-17.662067413330078
ाई	-17.663066864013672
क्षिक	-17.664066314697266
ाउनुहोस्	-17.66506576538086
▁पश्चिम	-17.666067123413086
णा	-17.66706657409668
▁सत	-17.668066024780273
▁ह्या	-17.6690673828125
▁अर्का	-17.670066833496094
▁अभियान	-17.671066284179688
▁भइसकेपछि	-17.67206573486328
▁कायम	-17.673067092895508
▁जमिन	-17.6740665435791
▁दिनको	-17.675065994262695
▁प्रणाली	-17.676067352294922
▁सृ	-17.677066802978516
▁भ्र	-17.67806625366211
▁फेसबुक	-17.679065704345703
▁आउट	-17.68006706237793
▁तार	-17.681066513061523
▁मार्फत	-17.682065963745117
▁समृद्धि	-17.683067321777344
▁जनसङ्ख्या	-17.684066772460938
▁शिव	-17.68506622314453
▁सम्भव	-17.686067581176758
लेस	-17.68706703186035
विध	-17.688066482543945
▁इन्जो	-17.68906593322754
▁तब	-17.690067291259766
▁नव	-17.69106674194336
▁घुम्	-17.692066192626953
▁गरियो	-17.69306755065918
▁पशु	-17.694067001342773
▁स्टा	-17.695066452026367
▁उत्स	-17.69606590270996
▁मानसिक	-17.697067260742188
▁व्यक्त	-17.69806671142578
▁बौ	-17.699066162109375
▁दियो	-17.7000675201416
▁रमाइ	-17.701066970825195
रीमा	-17.70206642150879
ष्टा	-17.703065872192383
▁खालका	-17.70406723022461
▁लड	-17.705066680908203
▁परीक्षण	-17.706066131591797
▁प्रसङ्ग	-17.707067489624023
▁बग	-17.708066940307617
▁रोक्	-17.70906639099121
कड	-17.710065841674805
चिव	-17.71106719970703
▁ढु	-17.712066650390625
▁लाग्दैन	-17.71306610107422
▁डिस्	-17.714067459106445
िसकेपछि	-17.71506690979004
▁इन्जोय	-17.716066360473633
▁बनाउँछ	-17.717065811157227
▁तिम्रो	-17.718067169189453
ाउज	-17.719066619873047
▁प्राइ	-17.72006607055664
▁हेर्नको	-17.721067428588867
▁केन्द्रित	-17.72206687927246
ार्मिक	-17.723066329956055
▁रह्यो	-17.72406578063965
▁नान	-17.725067138671875
▁मिस	-17.72606658935547
▁इन्ड	-17.727066040039062
▁उपाय	-17.72806739807129
▁गोर्	-17.729066848754883
िँदा	-17.730066299438477
▁गाई	-17.73106575012207
▁पाउँछ	-17.732067108154297
▁शैक्षिक	-17.73306655883789
▁चाल	-17.734066009521484
▁एरिया	-17.73506736755371
▁महानगर	-17.736066818237305
ँदै	-17.7370662689209
रहरू	-17.738065719604492
▁दुध	-17.73906707763672
▁राई	-17.740066528320312
ल्ल	-17.741065979003906
▁ग्यास	-17.742067337036133
ेप	-17.743066787719727
▁खबर	-17.74406623840332
▁लेभ	-17.745067596435547
तरण	-17.74606704711914
▁उम्म	-17.747066497802734
नीय	-17.748065948486328
▁चिया	-17.749067306518555
▁गुना	-17.75006675720215
▁सम्पत्ति	-17.751066207885742
▁सिंह	-17.75206756591797
काउन्ट	-17.753067016601562
▁यतापट्टि	-17.754066467285156
▁टोटल	-17.75506591796875
▁सहभागी	-17.756067276000977
▁दाजु	-17.75706672668457
ङ्का	-17.758066177368164
▁डाक्टर	-17.75906753540039
▁व्यक्तिगत	-17.760066986083984
▁आय	-17.761066436767578
▁इलेक्ट	-17.762065887451172
▁गतिविधि	-17.7630672454834
▁रेट	-17.764066696166992
▁धार्मिक	-17.765066146850586
▁मार्केट	-17.766067504882812
▁पुर्य	-17.767066955566406
▁सकेन	-17.76806640625
न्तरण	-17.769065856933594
▁बिक्री	-17.77006721496582
▁केन्द्री	-17.771066665649414
▁कम्युनि	-17.772066116333008
▁बौद्ध	-17.773067474365234
▁रोजगारी	-17.774066925048828
▁प्रत्यक्ष	-17.775066375732422
मार	-17.776065826416016
▁क्यान	-17.777067184448242
▁नबिर्सि	-17.778066635131836
▁व्यक्तिलाई	-17.77906608581543
▁अने	-17.780067443847656
▁मङ्गल	-17.78106689453125
▁एक्सप्र	-17.782066345214844
▁कालि	-17.783065795898438
▁दक्षि	-17.784067153930664
सुकै	-17.785066604614258
▁निश्चित	-17.78606605529785
▁कोइस	-17.787067413330078
▁डिस्ट	-17.788066864013672
▁सङ्के	-17.789066314697266
▁चेत	-17.79006576538086
्याक्ट	-17.791067123413086
▁ल्याउने	-17.79206657409668
▁विस्तार	-17.793066024780273
▁लाइफ	-17.7940673828125
▁सम्ब	-17.795066833496094
▁यहाँले	-17.796066284179688
▁कठ	-17.79706573486328
▁दसैँ	-17.798067092895508
▁सुन्दर	-17.7990665435791
त्री	-17.800065994262695
▁गइरहेको	-17.801067352294922
परि	-17.802066802978516
▁केन्द्रीय	-17.80306625366211
▁अर्ब	-17.804065704345703
▁पर्दछ	-17.80506706237793
लिम	-17.806066513061523
▁पदार्थ	-17.807065963745117
▁मनो	-17.808067321777344
▁शनि	-17.809066772460938
▁सम्पर्क	-17.81006622314453
▁नभए	-17.811067581176758
▁अग	-17.81206703186035
▁भन्छन्	-17.813066482543945
त्रो	-17.81406593322754
▁मिनट	-17.815067291259766
▁गृह	-17.81606674194336
▁सक्रिय	-17.817066192626953
कल	-17.81806755065918
▁जग	-17.819067001342773
▁अर्थतन्त्र	-17.820066452026367
ोस्	-17.82106590270996
ल्यै	-17.822067260742188
लिएको	-17.82306671142578
▁भिडियोमा	-17.824066162109375
ल्लाह	-17.8250675201416
▁भ्रमण	-17.826066970825195
▁पत्ता	-17.82706642150879
▁मित्र	-17.828065872192383
▁प्रगति	-17.82906723022461
लम	-17.830066680908203
▁ई	-17.831066131591797
▁बच्चा	-17.832067489624023
हुँ	-17.833066940307617
▁डिभाइड	-17.83406639099121
देव	-17.835065841674805
नुहुन्न	-17.83606719970703
▁मूल्याङ्कन	-17.837066650390625
▁कता	-17.83806610107422
▁ल्याउन	-17.839067459106445
▁सञ्चार	-17.84006690979004
▁त्यहाँको	-17.841066360473633
▁लै	-17.842065811157227
▁प्रभावित	-17.843067169189453
▁आरोप	-17.844066619873047
▁प्रतियोग	-17.84506607055664
्जेक्ट	-17.846067428588867
आई	-17.84706687927246
ुरा	-17.848066329956055
▁कङ्ग्रेस	-17.84906578063965
लाको	-17.850067138671875
▁कुल	-17.85106658935547
▁आन्त	-17.852066040039062
कर	-17.85306739807129
▁म्याने	-17.854066848754883
▁आन्तरिक	-17.855066299438477
▁मिलेर	-17.85606575012207
भु	-17.857067108154297
▁डट	-17.85806655883789
▁अपेक्षा	-17.859066009521484
▁इन्ट्रे	-17.86006736755371
ज्यू	-17.861066818237305
▁सहमति	-17.8620662689209
▁पौ	-17.863065719604492
▁घरको	-17.86406707763672
▁सिकाइ	-17.865066528320312
▁साझ	-17.866065979003906
▁पर्व	-17.867067337036133
▁सम्बन्धमा	-17.868066787719727
प्प	-17.86906623840332
▁याता	-17.870067596435547
▁थापा	-17.87106704711914
▁बोला	-17.872066497802734
▁बन्ने	-17.873065948486328
▁मज	-17.874067306518555
▁यातायात	-17.87506675720215
द्र	-17.876066207885742
▁गाउँमा	-17.87706756591797
▁सहकारी	-17.878067016601562
▁हेर्दा	-17.879066467285156
▁तेल	-17.88006591796875
▁चिकि	-17.881067276000977
▁च्या	-17.88206672668457
▁जाति	-17.883066177368164
▁आग्रह	-17.88406753540039
▁नाममा	-17.885066986083984
▁गरिराख	-17.886066436767578
▁इन्ट्रेस्ट	-17.887065887451172
▁बालबा	-17.8880672454834
▁प्रकृति	-17.889066696166992
रहनु	-17.890066146850586
▁हाउ	-17.891067504882812
ेसम्म	-17.892066955566406
▁ज्या	-17.89306640625
▁बाइ	-17.894065856933594
▁बालबालिका	-17.89506721496582
नले	-17.896066665649414
किएको	-17.897066116333008
म्पोङ	-17.898067474365234
डिट	-17.899066925048828
विद्या	-17.900066375732422
▁जिल्लामा	-17.901065826416016
▁दिस	-17.902067184448242
▁देखा	-17.903066635131836
▁पढाइ	-17.90406608581543
▁सङ्केत	-17.905067443847656
▁साह्रै	-17.90606689453125
्यारो	-17.907066345214844
▁इन्भ	-17.908065795898438
▁नगर्	-17.909067153930664
राखेको	-17.910066604614258
▁क्लिप	-17.91106605529785
▁भावना	-17.912067413330078
एफ	-17.913066864013672
▁नबिर्सिनुहोला	-17.914066314697266
ामु	-17.91506576538086
▁झन्	-17.916067123413086
▁बिरामी	-17.91706657409668
िटिभ	-17.918066024780273
▁वितरण	-17.9190673828125
▁सुरक्षित	-17.920066833496094
काहीँ	-17.921066284179688
▁सञ्चाल	-17.92206573486328
▁कहिलेकाहीँ	-17.923067092895508
फो	-17.9240665435791
श्व	-17.925065994262695
▁फा	-17.926067352294922
▁पुग्ने	-17.927066802978516
▁सञ्ज	-17.92806625366211
लोड	-17.929065704345703
▁हस्	-17.93006706237793
▁पूर्वाधार	-17.931066513061523
▁बताउनुभयो	-17.932065963745117
स्पर्	-17.933067321777344
िसो	-17.934066772460938
▁एव	-17.93506622314453
▁हुनुहुन्थ्यो	-17.936067581176758
गी	-17.93706703186035
▁भर	-17.938066482543945
▁हास	-17.93906593322754
▁ऊर्जा	-17.940067291259766
▁राशिका	-17.94106674194336
▁हुँदैछ	-17.942066192626953
▁गल्	-17.94306755065918
▁तीन	-17.944067001342773
▁कालिम्पोङ	-17.945066452026367
मित	-17.94606590270996
डको	-17.947067260742188
▁रिज	-17.94806671142578
ेसनमा	-17.949066162109375
▁आए	-17.9500675201416
नुपर्दा	-17.951066970825195
▁दुइ	-17.95206642150879
▁सिम्प	-17.953065872192383
▁धु	-17.95406723022461
▁गुनासो	-17.955066680908203
▁तत्त्व	-17.956066131591797
▁तेइस	-17.957067489624023
▁सुझाव	-17.958066940307617
▁प्रतिस्पर्	-17.95906639099121
▁अङ्ग्रेजीमा	-17.960065841674805
▁पर्या	-17.96106719970703
▁फोर्टी	-17.962066650390625
घट	-17.96306610107422
ाइन	-17.964067459106445
▁काग	-17.96506690979004
▁समावेश	-17.966066360473633
▁पञ्च	-17.967065811157227
▁पारि	-17.968067169189453
▁विषयवस्तु	-17.969066619873047
▁शी	-17.97006607055664
▁दाय	-17.971067428588867
▁लकड	-17.97206687927246
▁छोटो	-17.973066329956055
▁महास	-17.97406578063965
▁दुख	-17.975067138671875
दर्शन	-17.97606658935547
▁तरकारी	-17.977066040039062
▁आइरहेको	-17.97806739807129
ङ्गो	-17.979066848754883
▁मजाले	-17.980066299438477
▁उत्पाद	-17.98106575012207
▁टर्म	-17.982067108154297
▁यिनीहरू	-17.98306655883789
▁ठ्याक्कै	-17.984066009521484
▁अक्स	-17.98506736755371
▁बैठक	-17.986066818237305
▁बोर्ड	-17.9870662689209
▁दोष	-17.988065719604492
▁अनुरोध	-17.98906707763672
▁नट	-17.990066528320312
योजन	-17.991065979003906
पूर्वक	-17.992067337036133
▁सरकारलाई	-17.993066787719727
पोज	-17.99406623840332
पल्ट	-17.995067596435547
▁भोग	-17.99606704711914
▁पाँचवटा	-17.997066497802734
▁सल्लाह	-17.998065948486328
ोरी	-17.999067306518555
▁खरि	-18.00006675720215
▁फर्क	-18.001066207885742
▁फिल्म	-18.00206756591797
▁विविध	-18.003067016601562
▁आइपुग	-18.004066467285156
▁अनुकूल	-18.00506591796875
▁नसक्ने	-18.006067276000977
▁बताएका	-18.00706672668457
▁आँखा	-18.008066177368164
▁मधेस	-18.00906753540039
▁साना	-18.010066986083984
▁भोट	-18.011066436767578
▁विश्ले	-18.012065887451172
▁नगर्ने	-18.0130672454834
द्द	-18.014066696166992
▁रमाइलो	-18.015066146850586
थे	-18.016067504882812
थो	-18.017066955566406
▁उपयोग	-18.01806640625
▁बनाउँ	-18.019065856933594
▁गर्नका	-18.02006721496582
▁व्यक्तित्व	-18.021066665649414
ियन	-18.022066116333008
पिटल	-18.023067474365234
▁मेरा	-18.024066925048828
▁लेखेको	-18.025066375732422
▁नम्बरको	-18.026065826416016
दू	-18.027067184448242
चालिस	-18.028066635131836
नैतिक	-18.02906608581543
रिङ	-18.030067443847656
▁शुक्र	-18.03106689453125
▁थालेको	-18.032066345214844
▁विज	-18.033065795898438
▁मल्ट	-18.034067153930664
▁कोसिस	-18.035066604614258
▁त्यसका	-18.03606605529785
▁विकल्प	-18.037067413330078
▁संशोधन	-18.038066864013672
▁सुरुवा	-18.039066314697266
▁गभ	-18.04006576538086
स्टमा	-18.041067123413086
स्ती	-18.04206657409668
▁तिमीले	-18.043066024780273
क्ता	-18.0440673828125
विद्यालय	-18.045066833496094
▁नेपालले	-18.046066284179688
बो	-18.04706573486328
▁जोग	-18.048067092895508
▁भ्या	-18.0490665435791
होर	-18.050065994262695
▁विश्वविद्यालय	-18.051067352294922
ेन्द्र	-18.052066802978516
▁पढ्ने	-18.05306625366211
▁बुझ्ने	-18.054065704345703
▁माओ	-18.05506706237793
▁तिमीलाई	-18.056066513061523
▁मात्रामा	-18.057065963745117
▁सिट	-18.058067321777344
▁हेल्	-18.059066772460938
िप्	-18.06006622314453
▁दी	-18.061067581176758
▁समान	-18.06206703186035
▁प्रभावकारी	-18.063066482543945
कोण	-18.06406593322754
जनाको	-18.065067291259766
▁कविता	-18.06606674194336
▁प्राइस	-18.067066192626953
▁मन्त्रालयले	-18.06806755065918
ार्ज	-18.069067001342773
▁ब्यालेन्स	-18.070066452026367
पर्ने	-18.07106590270996
▁अधिक	-18.072067260742188
▁दर्शन	-18.07306671142578
▁महामा	-18.074066162109375
▁प्रकारले	-18.0750675201416
▁बढाउन	-18.076066970825195
▁नद	-18.07706642150879
▁उता	-18.078065872192383
▁कोठ	-18.07906723022461
▁ग्या	-18.080066680908203
▁परेका	-18.081066131591797
▁गरिएका	-18.082067489624023
▁झन्ड	-18.083066940307617
▁किसिमका	-18.08406639099121
▁अलग	-18.085065841674805
▁स्टेट	-18.08606719970703
▁योगदान	-18.087066650390625
▁निर्देशन	-18.08806610107422
▁वास्तविक	-18.089067459106445
▁एवम्	-18.09006690979004
▁एल	-18.091066360473633
अघि	-18.092065811157227
ङ्ख	-18.093067169189453
▁प्रजा	-18.094066619873047
▁उम्मेद	-18.09506607055664
▁सर्	-18.096067428588867
▁सूची	-18.09706687927246
▁सम्बोधन	-18.098066329956055
▁कट	-18.09906578063965
▁अप्ठ	-18.100067138671875
न्तु	-18.10106658935547
▁पुग्	-18.102066040039062
▁युद्ध	-18.10306739807129
▁डाउन	-18.104066848754883
▁यहाँलाई	-18.105066299438477
▁गरिब	-18.10606575012207
▁इक्जाम	-18.107067108154297
▁अनेक	-18.10806655883789
▁अर्ग	-18.109066009521484
▁चिनि	-18.11006736755371
▁सर्वो	-18.111066818237305
ाइएको	-18.1120662689209
रिज	-18.113065719604492
▁सम्झौ	-18.11406707763672
▁रुट	-18.115066528320312
स्ट्र	-18.116065979003906
▁राजनैतिक	-18.117067337036133
▁अर	-18.118066787719727
▁आस	-18.11906623840332
▁उन्न	-18.120067596435547
▁सजिलै	-18.12106704711914
▁हासिल	-18.122066497802734
▁प्राकृतिक	-18.123065948486328
▁छि	-18.124067306518555
▁कल्	-18.12506675720215
▁तर्फ	-18.126066207885742
▁बलियो	-18.12706756591797
▁एक्सप्रेस	-18.128067016601562
▁दिए	-18.129066467285156
▁बाहेक	-18.13006591796875
▁उयो	-18.131067276000977
▁अपराध	-18.13206672668457
▁नसकेको	-18.133066177368164
दिनुहोस्	-18.13406753540039
▁मल	-18.135066986083984
▁नभएर	-18.136066436767578
▁इम	-18.137065887451172
▁पस	-18.1380672454834
▁कामको	-18.139066696166992
▁थाउज	-18.140066146850586
▁दक्षिण	-18.141067504882812
भाष	-18.142066955566406
▁उनलाई	-18.14306640625
वरी	-18.144065856933594
ानब्बे	-18.14506721496582
▁क्रियाकला	-18.146066665649414
▁चाहियो	-18.147066116333008
▁त्यसबाट	-18.148067474365234
▁दिनुहोस्	-18.149066925048828
▁नियमित	-18.150066375732422
कुद	-18.151065826416016
लीमा	-18.152067184448242
▁भेरी	-18.153066635131836
▁गुणस्त	-18.15406608581543
▁रोजगार	-18.155067443847656
▁माध्यमबाट	-18.15606689453125
▁अफिस	-18.157066345214844
▁छुट्टै	-18.158065795898438
▁फिर्ता	-18.159067153930664
▁महिनाको	-18.160066604614258
▁वित्त	-18.16106605529785
▁खेलकुद	-18.162067413330078
▁सङ्क्रमित	-18.163066864013672
▁खरिद	-18.164066314697266
▁थाउजन्ड	-18.16506576538086
▁मानिन्छ	-18.166067123413086
बिन	-18.16706657409668
ामुख	-18.168066024780273
▁हार्दिक	-18.1690673828125
▁कुराहरूलाई	-18.170066833496094
यी	-18.171066284179688
त्तरी	-18.17206573486328
▁प्रोसेस	-18.173067092895508
▁गरिदिनु	-18.1740665435791
न्त्रिक	-18.175065994262695
▁साँच्च	-18.176067352294922
▁उड	-18.177066802978516
▁मिठो	-18.17806625366211
▁पर्यटन	-18.179065704345703
▁बढाउने	-18.18006706237793
▁भन्नाले	-18.181066513061523
▁जेन	-18.182065963745117
शक्ति	-18.183067321777344
▁भाग्य	-18.184066772460938
▁कानुनी	-18.18506622314453
▁चिन्ता	-18.186067581176758
▁छे	-18.18706703186035
लिया	-18.188066482543945
▁मनु	-18.18906593322754
▁अधिका	-18.190067291259766
▁कम्प्	-18.19106674194336
▁म्यानेज	-18.192066192626953
र्याक्ट	-18.19306755065918
▁ठा	-18.194067001342773
▁हौ	-18.195066452026367
कालीन	-18.19606590270996
▁एक्ट	-18.197067260742188
▁भिन्न	-18.19806671142578
▁अधिकांश	-18.199066162109375
▁ट्रान्स	-18.2000675201416
▁त्यहीँ	-18.201066970825195
▁यहीँ	-18.20206642150879
▁रूपले	-18.203065872192383
▁ल्याएर	-18.20406723022461
▁पोजिटिभ	-18.205066680908203
ट्ठ	-18.206066131591797
▁टप	-18.207067489624023
▁राख्नु	-18.208066940307617
▁बल	-18.20906639099121
▁रङ	-18.210065841674805
▁त्यतिखेर	-18.21106719970703
▁दिनुपर्छ	-18.212066650390625
देशिक	-18.21306610107422
▁सङ्घर्ष	-18.214067459106445
▁विधेयक	-18.21506690979004
▁आउनु	-18.216066360473633
▁रहेर	-18.217065811157227
▁तहमा	-18.218067169189453
▁महँग	-18.219066619873047
▁भारतको	-18.22006607055664
▁बस्न	-18.221067428588867
▁पीडित	-18.22206687927246
▁क्रिकेट	-18.223066329956055
▁प्रशासन	-18.22406578063965
लिज	-18.225067138671875
स्टर	-18.22606658935547
▁स्पेस	-18.227066040039062
▁अरूलाई	-18.22806739807129
र्जी	-18.229066848754883
▁विवरण	-18.230066299438477
▁बुझ्नु	-18.23106575012207
▁मिल्दैन	-18.232067108154297
▁दृष्टिकोण	-18.23306655883789
▁फिल	-18.234066009521484
▁भ्रष्टा	-18.23506736755371
▁एप	-18.236066818237305
ाउँछु	-18.2370662689209
▁नेक्	-18.238065719604492
हाल्छ	-18.23906707763672
▁विद्युत	-18.240066528320312
▁कस्ट	-18.241065979003906
▁सपोर्ट	-18.242067337036133
▁रेस	-18.243066787719727
▁क्वेसन	-18.24406623840332
▁भण्ड	-18.245067596435547
▁शीर्ष	-18.24606704711914
▁हिन्दू	-18.247066497802734
ुलर	-18.248065948486328
▁गर्दछन्	-18.249067306518555
▁तिनीहरू	-18.25006675720215
▁संसारमा	-18.251066207885742
▁बद	-18.25206756591797
▁नकारात्मक	-18.253067016601562
मती	-18.254066467285156
▁टिभ	-18.25506591796875
▁प्रब्	-18.256067276000977
ाहरूमा	-18.25706672668457
▁एङ्गल	-18.258066177368164
▁सालमा	-18.25906753540039
िनमा	-18.260066986083984
ेम्बर	-18.261066436767578
▁तहको	-18.262065887451172
▁सङ्गठन	-18.2630672454834
▁गर्दैछौँ	-18.264066696166992
▁पक्षमा	-18.265066146850586
▁उपलब्धि	-18.266067504882812
▁ल्याएको	-18.267066955566406
▁चन्द्रमा	-18.26806640625
▁रेक	-18.269065856933594
▁प्रतिष्ठ	-18.27006721496582
भर्स	-18.271066665649414
▁सफा	-18.272066116333008
▁हुँदो	-18.273067474365234
▁देखियो	-18.274066925048828
▁इफ	-18.275066375732422
डक्ट	-18.276065826416016
काल	-18.277067184448242
▁जेनर	-18.278066635131836
▁सचेत	-18.27906608581543
▁दाहाल	-18.280067443847656
▁मनुष्य	-18.28106689453125
▁सहाय	-18.282066345214844
▁दिनुपर्ने	-18.283065795898438
िप	-18.284067153930664
▁सिप	-18.285066604614258
▁बिग्र	-18.28606605529785
▁दिनुभएको	-18.287067413330078
▁मार्	-18.288066864013672
▁प्राण	-18.289066314697266
▁लागु	-18.29006576538086
▁चित्त	-18.291067123413086
▁द्याट	-18.29206657409668
▁राज्यको	-18.293066024780273
▁विकासको	-18.2940673828125
ाही	-18.295066833496094
वासी	-18.296066284179688
▁अनुभू	-18.29706573486328
▁भ्रष्टाचार	-18.298067092895508
▁लगाउन	-18.2990665435791
▁ज्यो	-18.300065994262695
▁गर्यो	-18.301067352294922
▁आउँदैन	-18.302066802978516
▁कालो	-18.30306625366211
▁मान्यता	-18.304065704345703
केट	-18.30506706237793
▁मिट	-18.306066513061523
▁इङ्ग	-18.307065963745117
▁इम्पो	-18.308067321777344
▁पानीको	-18.309066772460938
▁पर्यटक	-18.31006622314453
्छन्	-18.311067581176758
▁होम	-18.31206703186035
ाउनको	-18.313066482543945
▁निमि	-18.31406593322754
▁कर्मचार	-18.315067291259766
मय	-18.31606674194336
▁मान्	-18.317066192626953
▁कलाकार	-18.31806755065918
▁पुऱ्या	-18.319067001342773
धु	-18.320066452026367
पान	-18.32106590270996
धीश	-18.322067260742188
क्का	-18.32306671142578
ट्ठी	-18.324066162109375
▁हित	-18.3250675201416
▁पार्ने	-18.326066970825195
▁सञ्जाल	-18.32706642150879
▁बिजनेस	-18.328065872192383
▁निमित्त	-18.32906723022461
▁तथ्याङ्क	-18.330066680908203
▁प्रावि	-18.331066131591797
▁नियु	-18.332067489624023
▁सन्देश	-18.333066940307617
रलाई	-18.33406639099121
▁गल्ती	-18.335065841674805
ज्ञानिक	-18.33606719970703
▁संस्कार	-18.337066650390625
जिङ	-18.33806610107422
▁एयर	-18.339067459106445
▁काल	-18.34006690979004
▁पाल	-18.341066360473633
नाहरू	-18.342065811157227
▁भाषामा	-18.343067169189453
▁मेड	-18.344066619873047
▁देखेको	-18.34506607055664
▁शरीरमा	-18.346067428588867
▁विश्लेषण	-18.34706687927246
मेट	-18.348066329956055
▁न्याया	-18.34906578063965
फिट	-18.350067138671875
लीको	-18.35106658935547
▁सङ्घीय	-18.352066040039062
▁नाइन्टी	-18.35306739807129
ारम्भ	-18.354066848754883
▁टोली	-18.355066299438477
▁दिवस	-18.35606575012207
स्कृतिक	-18.357067108154297
▁प्रश्नहरू	-18.35806655883789
▁द्व	-18.359066009521484
▁नोट	-18.36006736755371
▁तर्फबाट	-18.361066818237305
▁नार	-18.3620662689209
▁स्टु	-18.363065719604492
▁ज्योति	-18.36406707763672
फुल	-18.365066528320312
▁शृ	-18.366065979003906
▁चेक	-18.367067337036133
▁सेम	-18.368066787719727
▁पाएँ	-18.36906623840332
▁परिचय	-18.370067596435547
▁जवा	-18.37106704711914
▁ग्रहण	-18.372066497802734
▁पुग्न	-18.373065948486328
▁सकियो	-18.374067306518555
▁राम्रै	-18.37506675720215
▁न्यायाधीश	-18.376066207885742
▁नब्बे	-18.37706756591797
▁पाठ्य	-18.378067016601562
▁दुर्घट	-18.379066467285156
▁आयोगले	-18.38006591796875
इसकेपछि	-18.381067276000977
▁अप्ठ्यारो	-18.38206672668457
आइ	-18.383066177368164
डिय	-18.38406753540039
▁मोट	-18.385066986083984
▁मनपर्छ	-18.386066436767578
▁प्राविधिक	-18.387065887451172
फी	-18.3880672454834
▁अँ	-18.389066696166992
▁किलोमिटर	-18.390066146850586
▁मस	-18.391067504882812
▁ल्याइ	-18.392066955566406
▁प्रहरीले	-18.39306640625
▁गठन	-18.394065856933594
▁श्रम	-18.39506721496582
▁अवश्य	-18.396066665649414
▁सांस्कृतिक	-18.397066116333008
ढे	-18.398067474365234
ासो	-18.399066925048828
धानी	-18.400066375732422
िकन	-18.401065826416016
▁जिज	-18.402067184448242
▁हुन्छौँ	-18.403066635131836
▁डाय	-18.40406608581543
ेसनको	-18.405067443847656
▁स्वभाव	-18.40606689453125
▁सकिँदैन	-18.407066345214844
पे	-18.408065795898438
हादुर	-18.409067153930664
▁पुस्तक	-18.410066604614258
टु	-18.41106605529785
उको	-18.412067413330078
गमन	-18.413066864013672
गमा	-18.414066314697266
्याल	-18.41506576538086
▁योग्य	-18.416067123413086
▁हावा	-18.41706657409668
▁जाँदै	-18.418066024780273
▁क्षेत्रका	-18.4190673828125
▁जन्मि	-18.420066833496094
▁एप्लिक	-18.421066284179688
कट	-18.42206573486328
▁नेट	-18.423067092895508
▁सोस	-18.4240665435791
▁भाइरस	-18.425065994262695
▁श्रेष्ठ	-18.426067352294922
▁भुक्तानी	-18.427066802978516
डीमा	-18.42806625366211
▁ट्याक्स	-18.429065704345703
▁अरूको	-18.43006706237793
▁लिमिट	-18.431066513061523
▁समर्थ	-18.432065963745117
▁सक्दैनौँ	-18.433067321777344
ङ्स	-18.434066772460938
साद	-18.43506622314453
्रोल	-18.436067581176758
▁इम्पोर्ट	-18.43706703186035
▁पैँतिस	-18.438066482543945
▁बताउनु	-18.43906593322754
▁अघिल्लो	-18.440067291259766
▁प्रतिक्रिया	-18.44106674194336
▁विमान	-18.442066192626953
▁प्रतिबद्ध	-18.44306755065918
▁फिफ्टी	-18.444067001342773
▁नेताहरू	-18.445066452026367
दानी	-18.44606590270996
▁छब्ब	-18.447067260742188
ग्ने	-18.44806671142578
▁क्रे	-18.449066162109375
▁बिना	-18.4500675201416
▁सिर्	-18.451066970825195
▁लगाउनु	-18.45206642150879
▁मेस	-18.453065872192383
भाविक	-18.45406723022461
▁कै	-18.455066680908203
सँगको	-18.456066131591797
▁जी	-18.457067489624023
▁केवल	-18.458066940307617
डे	-18.45906639099121
▁उचित	-18.460065841674805
▁आफैले	-18.46106719970703
▁कोइसन	-18.462066650390625
टाइ	-18.46306610107422
▁भुट	-18.464067459106445
▁मौका	-18.46506690979004
▁लगाएको	-18.466066360473633
▁वी	-18.467065811157227
▁फुटबल	-18.468067169189453
▁छब्बिस	-18.469066619873047
▁व्याख्या	-18.47006607055664
▁परिष	-18.471067428588867
▁कुक	-18.47206687927246
▁हिट	-18.473066329956055
▁टाढा	-18.47406578063965
▁क्युब	-18.475067138671875
्दाखेरि	-18.47606658935547
▁ऐन	-18.477066040039062
▁मर्	-18.47806739807129
▁फर्कि	-18.479066848754883
▁पुस्ता	-18.480066299438477
▁धान	-18.48106575012207
▁सज	-18.482067108154297
▁चाइ	-18.48306655883789
▁रुख	-18.484066009521484
▁खासै	-18.48506736755371
▁बन्छ	-18.486066818237305
▁म्यु	-18.4870662689209
▁ग्रुप	-18.488065719604492
▁एभ	-18.48906707763672
▁त्याग	-18.490066528320312
▁वित्तीय	-18.491065979003906
▁त्यहाँदेखि	-18.492067337036133
▁बुध	-18.493066787719727
नुपर्दछ	-18.49406623840332
▁व्यवस्थित	-18.495067596435547
रामा	-18.49606704711914
▁हप्ता	-18.497066497802734
▁सर्वोच्च	-18.498065948486328
▁वर्क	-18.499067306518555
▁स्थापित	-18.50006675720215
तान्त्रिक	-18.501066207885742
▁कम्युनिस्ट	-18.50206756591797
▁धा	-18.503067016601562
िसकेको	-18.504066467285156
जीको	-18.50506591796875
▁गर्दछु	-18.506067276000977
िनँ	-18.50706672668457
ेन्सन	-18.508066177368164
्नुहोस्	-18.50906753540039
डीको	-18.510066986083984
▁तपाईँसँग	-18.511066436767578
न्दु	-18.512065887451172
▁विप	-18.5130672454834
▁छिम	-18.514066696166992
▁कृष्ण	-18.515066146850586
▁उपयुक्त	-18.516067504882812
▁भन्नुपर्दा	-18.517066955566406
▁खेल्	-18.51806640625
▁ब्रा	-18.519065856933594
▁जिज्ञ	-18.52006721496582
▁पर्याप्त	-18.521066665649414
▁राखिएको	-18.522066116333008
▁खरा	-18.523067474365234
▁जिज्ञास	-18.524066925048828
▁सिर्जना	-18.525066375732422
▁प्रोग्राम	-18.526065826416016
▁आच	-18.527067184448242
▁हरि	-18.528066635131836
▁चिन्त	-18.52906608581543
▁देखाएको	-18.530067443847656
▁तामा	-18.53106689453125
▁डक्टर	-18.532066345214844
▁डिजिट	-18.533065795898438
▁न्यून	-18.534067153930664
▁समाचारका	-18.535066604614258
▁मासु	-18.53606605529785
▁सम्मेल	-18.537067413330078
▁इन्फर्म	-18.538066864013672
▁नेक्स्ट	-18.539066314697266
▁खेलाडी	-18.54006576538086
धानिक	-18.541067123413086
▁एमाले	-18.54206657409668
▁भनेका	-18.543066024780273
▁चाहिएको	-18.5440673828125
▁भनी	-18.545066833496094
दिएको	-18.546066284179688
▁अग्र	-18.54706573486328
▁प्लान्ट	-18.548067092895508
न्वय	-18.5490665435791
ेप्ट	-18.550065994262695
▁देखेर	-18.551067352294922
▁यसबाट	-18.552066802978516
▁टी	-18.55306625366211
▁जनतालाई	-18.554065704345703
धुनिक	-18.55506706237793
▁इन्स	-18.556066513061523
▁तापनि	-18.557065963745117
इनँ	-18.558067321777344
सिय	-18.559066772460938
ेरा	-18.56006622314453
क्नु	-18.561067581176758
▁क्षति	-18.56206703186035
▁बिराम	-18.563066482543945
▁सभामुख	-18.56406593322754
▁कम्पनीको	-18.565067291259766
▁अङ्ग्रेजी	-18.56606674194336
▁निस्कि	-18.567066192626953
एल	-18.56806755065918
ाइज	-18.569067001342773
▁फाइन	-18.570066452026367
▁दुईजना	-18.57106590270996
▁विदेशमा	-18.572067260742188
▁कार्यकर्	-18.57306671142578
▁बुवा	-18.574066162109375
▁प्रब्लम	-18.5750675201416
▁बताउँछन्	-18.576066970825195
▁हुनेहरूका	-18.57706642150879
▁नह	-18.578065872192383
क्चर	-18.57906723022461
▁सहर	-18.580066680908203
▁हाँ	-18.581066131591797
कृष्ट	-18.582067489624023
सीको	-18.583066940307617
▁प्रारम्भ	-18.58406639099121
▁कार्यक्रमहरू	-18.585065841674805
▁पत्रकार	-18.58606719970703
▁फोर्स	-18.587066650390625
▁शुद्ध	-18.58806610107422
▁भिज	-18.589067459106445
▁वेट	-18.59006690979004
▁गाउँपालिका	-18.591066360473633
गल	-18.592065811157227
बिच	-18.593067169189453
▁दौ	-18.594066619873047
▁वचन	-18.59506607055664
्सहरू	-18.596067428588867
▁प्रच	-18.59706687927246
्लिस	-18.598066329956055
धिकरण	-18.59906578063965
▁शृङ्ख	-18.600067138671875
▁नेपालका	-18.60106658935547
दियो	-18.602066040039062
▁बिचको	-18.60306739807129
▁नेग	-18.604066848754883
तालिस	-18.605066299438477
▁दिदी	-18.60606575012207
▁भक्त	-18.607067108154297
▁दिँदै	-18.60806655883789
बस	-18.609066009521484
▁सचिव	-18.61006736755371
▁जिन्द	-18.611066818237305
ँदाखेरि	-18.6120662689209
▁चिजहरू	-18.613065719604492
▁लोकतन्त्र	-18.61406707763672
घाट	-18.615066528320312
▁आधा	-18.616065979003906
▁पाहा	-18.617067337036133
▁मुक्त	-18.618066787719727
▁तत्काल	-18.61906623840332
▁शिक्षाको	-18.620067596435547
थेँ	-18.62106704711914
▁आधारित	-18.622066497802734
▁इङ्ग्लिस	-18.623065948486328
ेरो	-18.624067306518555
▁शासन	-18.62506675720215
तमान	-18.626066207885742
▁आयात	-18.62706756591797
▁चिसो	-18.628067016601562
▁सँगै	-18.629066467285156
▁भएकोले	-18.63006591796875
▁वरिपरि	-18.631067276000977
▁हल	-18.63206672668457
▁डाटा	-18.633066177368164
▁विषयलाई	-18.63406753540039
▁हजुरहरूले	-18.635066986083984
न्च	-18.636066436767578
चारिक	-18.637065887451172
▁बजे	-18.6380672454834
▁पार्न	-18.639066696166992
▁बङ्गाल	-18.640066146850586
▁चलिरहेको	-18.641067504882812
▁क्रियाकलाप	-18.642066955566406
▁हृ	-18.64306640625
▁कहाँबाट	-18.644065856933594
▁निरा	-18.64506721496582
ीन	-18.646066665649414
▁मोड	-18.647066116333008
▁सङ्कट	-18.648067474365234
▁हातमा	-18.649066925048828
▁च्यानल	-18.650066375732422
▁साइडमा	-18.651065826416016
▁साढे	-18.652067184448242
▁अनुभूति	-18.653066635131836
▁आत्मा	-18.65406608581543
▁मानौँ	-18.655067443847656
▁सन्तान	-18.65606689453125
जनको	-18.657066345214844
▁मेट	-18.658065795898438
▁चासो	-18.659067153930664
उनुहोस्	-18.660066604614258
▁बैठकमा	-18.66106605529785
▁जय	-18.662067413330078
▁सुना	-18.663066864013672
▁फोहोर	-18.664066314697266
▁कमजो	-18.66506576538086
▁झन्डै	-18.666067123413086
▁अनुमान	-18.66706657409668
भूत	-18.668066024780273
▁खाली	-18.6690673828125
▁ग्राम	-18.670066833496094
लिमेन्ट	-18.671066284179688
▁आँख	-18.67206573486328
▁पार्टीले	-18.673067092895508
पेन्ड	-18.6740665435791
▁व्याव	-18.675065994262695
▁योभन्दा	-18.676067352294922
्रिक	-18.677066802978516
▁सीमित	-18.67806625366211
▁राज्यले	-18.679065704345703
▁नहो	-18.68006706237793
▁जान्न	-18.681066513061523
▁पात्र	-18.682065963745117
▁शिक्षण	-18.683067321777344
▁निर्वाचनमा	-18.684066772460938
▁लगेर	-18.68506622314453
▁हृदय	-18.686067581176758
▁सन्तु	-18.68706703186035
▁ठे	-18.688066482543945
▁तालिम	-18.68906593322754
▁महानगरपालिका	-18.690067291259766
जको	-18.69106674194336
उँछु	-18.692066192626953
रीय	-18.69306755065918
▁कन्फ	-18.694067001342773
▁अभिव्य	-18.695066452026367
काम	-18.69606590270996
्युम	-18.697067260742188
▁मूर्	-18.69806671142578
▁छैनौँ	-18.699066162109375
▁खुट्टा	-18.7000675201416
▁गए	-18.701066970825195
▁देशका	-18.70206642150879
▁धारणा	-18.703065872192383
▁टाइममा	-18.70406723022461
▁जनशक्ति	-18.705066680908203
▁कार्ड	-18.706066131591797
▁पाएका	-18.707067489624023
▁भइरहेछ	-18.708066940307617
▁माओवादी	-18.70906639099121
णु	-18.710065841674805
▁प्रशि	-18.71106719970703
▁प्रशास	-18.712066650390625
▁नेगेटिभ	-18.71306610107422
▁वर्तमान	-18.714067459106445
चु	-18.71506690979004
▁समितिले	-18.716066360473633
▁साँच्चै	-18.717065811157227
ङ्घ	-18.718067169189453
▁गुरुङ	-18.719066619873047
▁प्रवृत्ति	-18.72006607055664
▁मानिसको	-18.721067428588867
▁वैदेशिक	-18.72206687927246
कलाई	-18.723066329956055
▁प्राधिकरण	-18.72406578063965
▁बया	-18.725067138671875
▁बेर	-18.72606658935547
▁भारतमा	-18.727066040039062
▁आलो	-18.72806739807129
▁काउ	-18.729066848754883
▁गुमा	-18.730066299438477
▁चौथो	-18.73106575012207
▁समेट	-18.732067108154297
▁जागिर	-18.73306655883789
▁पक्र	-18.734066009521484
st	-18.73506736755371
साथ	-18.736066818237305
ार्य	-18.7370662689209
▁नगरी	-18.738065719604492
▁सत्ताइस	-18.73906707763672
▁जनवरी	-18.740066528320312
▁आधुनिक	-18.741065979003906
▁भइसक्यो	-18.742067337036133
▁आउनुहोस्	-18.743066787719727
▁भोज	-18.74406623840332
▁क्यु	-18.745067596435547
▁योगहरू	-18.74606704711914
▁उम्मेदवार	-18.747066497802734
बे	-18.748065948486328
▁दिमा	-18.749067306518555
▁मद्द	-18.75006675720215
र्मेन्ट	-18.751066207885742
▁क्लियर	-18.75206756591797
जमा	-18.753067016601562
▁बक्स	-18.754066467285156
▁विभा	-18.75506591796875
▁चिकित्स	-18.756067276000977
▁कम्पनीले	-18.75706672668457
▁नेक	-18.758066177368164
▁साइन	-18.75906753540039
▁मानिसहरूले	-18.760066986083984
यल	-18.761066436767578
▁पुग्छ	-18.762065887451172
▁नागरिकता	-18.7630672454834
▁अट्ठ	-18.764066696166992
▁सम्झौता	-18.765066146850586
▁व्यवस्थाप	-18.766067504882812
पण	-18.767066955566406
▁सङ्कलन	-18.76806640625
▁गभर्मेन्ट	-18.769065856933594
▁बर्	-18.77006721496582
▁बुझाइ	-18.771066665649414
▁इन्टरनेट	-18.772066116333008
▁कार्यक्रमको	-18.773067474365234
▁बुक	-18.774066925048828
▁होट	-18.775066375732422
कर्षण	-18.776065826416016
▁अल्	-18.777067184448242
▁अक्ष	-18.778066635131836
मलव	-18.77906608581543
▁बाटोमा	-18.780067443847656
▁जनप्रति	-18.78106689453125
वाई	-18.782066345214844
▁साँ	-18.783065795898438
नेछन्	-18.784067153930664
▁हाइड	-18.785066604614258
▁अट्ठाइस	-18.78606605529785
▁अभिभाव	-18.787067413330078
▁उत्साह	-18.788066864013672
▁रेडियो	-18.789066314697266
▁पार्टीका	-18.79006576538086
सट्ठी	-18.791067123413086
▁मद्दत	-18.79206657409668
▁अनुमति	-18.793066024780273
▁श्रमिक	-18.7940673828125
▁तपाईँका	-18.795066833496094
▁एफ	-18.796066284179688
▁जात	-18.79706573486328
▁बनेका	-18.798067092895508
▁नहुँदा	-18.7990665435791
▁बराबरको	-18.800065994262695
▁पहल	-18.801067352294922
▁ब्रह	-18.802066802978516
▁दिन्छु	-18.80306625366211
ण्	-18.804065704345703
▁खि	-18.80506706237793
द्रा	-18.806066513061523
▁मिति	-18.807065963745117
कृतिको	-18.808067321777344
ारीरिक	-18.809066772460938
▁टेस्ट	-18.81006622314453
▁एकाउन्ट	-18.811067581176758
▁पचहत्तर	-18.81206703186035
▁सूच	-18.813066482543945
▁नेकपा	-18.81406593322754
▁कमजोरी	-18.815067291259766
▁शारीरिक	-18.81606674194336
चाइ	-18.817066192626953
▁तिनै	-18.81806755065918
▁बल्ल	-18.819067001342773
▁रोप्	-18.820066452026367
लाइज	-18.82106590270996
िस्ट	-18.822067260742188
▁तराई	-18.82306671142578
▁कुराले	-18.824066162109375
▁रेकर्ड	-18.8250675201416
▁सिम्पल	-18.826066970825195
▁निकाल्न	-18.82706642150879
▁वर्षदेखि	-18.828065872192383
यार	-18.82906723022461
क्रमण	-18.830066680908203
▁स्वरूप	-18.831066131591797
कीय	-18.832067489624023
▁निस्क	-18.833066940307617
▁बताए	-18.83406639099121
▁उन्नति	-18.835065841674805
▁प्रस्तुति	-18.83606719970703
धिकारी	-18.837066650390625
▁भर्खरै	-18.83806610107422
प्स	-18.839067459106445
▁पोलि	-18.84006690979004
▁ज्यान	-18.841066360473633
▁सोध्न	-18.842065811157227
▁चाड	-18.843067169189453
नुभएका	-18.844066619873047
▁हुनेछन्	-18.84506607055664
स्तान	-18.846067428588867
▁दिउँ	-18.84706687927246
▁सेना	-18.848066329956055
▁पन्	-18.84906578063965
▁दोहो	-18.850067138671875
▁फ्रे	-18.85106658935547
▁विपरी	-18.852066040039062
▁निकाल्	-18.85306739807129
▁गर्दैछु	-18.854066848754883
▁वैज्ञानिक	-18.855066299438477
वी	-18.85606575012207
क्रा	-18.857067108154297
ेन्सी	-18.85806655883789
▁गरेन	-18.859066009521484
▁जनप्रतिनिधि	-18.86006736755371
पाइ	-18.861066818237305
▁अत्या	-18.8620662689209
▁भागमा	-18.863065719604492
श्र	-18.86406707763672
ोका	-18.865066528320312
क्ने	-18.866065979003906
▁रेख	-18.867067337036133
▁रुचि	-18.868066787719727
▁पाउनु	-18.86906623840332
▁समयको	-18.870067596435547
▁स्वीकार	-18.87106704711914
▁प्रश्नको	-18.872066497802734
▁हेल्थ	-18.873065948486328
▁समाजको	-18.874067306518555
▁दान	-18.87506675720215
▁टिका	-18.876066207885742
▁रातो	-18.87706756591797
▁ग्रामी	-18.878067016601562
▁पर्न	-18.879066467285156
▁बढेर	-18.88006591796875
▁छोडेर	-18.881067276000977
▁थाल्यो	-18.88206672668457
फाइ	-18.883066177368164
▁कोष	-18.88406753540039
▁प्रतिवेदन	-18.885066986083984
षिक	-18.886066436767578
ियर	-18.887065887451172
▁फलो	-18.8880672454834
▁सरी	-18.889066696166992
▁बोल्ने	-18.890066146850586
▁सत्तरी	-18.891067504882812
ायण	-18.892066955566406
▁दाव	-18.89306640625
▁सर्क	-18.894065856933594
▁रिसर्च	-18.89506721496582
▁मल्टिप्	-18.896066665649414
कम्प	-18.897066116333008
▁मतदा	-18.898067474365234
शास्त्र	-18.899066925048828
▁निर्धारण	-18.900066375732422
जित	-18.901065826416016
कारि	-18.902067184448242
▁लकडाउन	-18.903066635131836
▁पब्	-18.90406608581543
▁खराब	-18.905067443847656
▁प्रतिस्पर्धा	-18.90606689453125
वर	-18.907066345214844
बिट	-18.908065795898438
क्रो	-18.909067153930664
▁मिल्ने	-18.910066604614258
▁सरकारमा	-18.91106605529785
ैर	-18.912067413330078
▁राम्रा	-18.913066864013672
▁राजनीतिमा	-18.914066314697266
▁गि	-18.91506576538086
▁किर	-18.916067123413086
▁कोइ	-18.91706657409668
▁नर्स	-18.918066024780273
हीन	-18.9190673828125
▁बोध	-18.920066833496094
▁सार	-18.921066284179688
▁ढिलो	-18.92206573486328
▁तिर्	-18.923067092895508
▁प्रणाल	-18.9240665435791
▁प्रदेशमा	-18.925065994262695
ात	-18.926067352294922
छिन	-18.927066802978516
▁नआ	-18.92806625366211
वित्र	-18.929065704345703
▁स्टार्ट	-18.93006706237793
▁प्र्याक्ट	-18.931066513061523
त्यका	-18.932065963745117
▁सर्भ	-18.933067321777344
▁आकर्ष	-18.934066772460938
▁स्क्र	-18.93506622314453
▁अबको	-18.936067581176758
▁व्यावसाय	-18.93706703186035
▁विद्यालयमा	-18.938066482543945
▁राति	-18.93906593322754
▁दायित्व	-18.940067291259766
▁कार्यहरू	-18.94106674194336
ानै	-18.942066192626953
▁नब	-18.94306755065918
▁डिस	-18.944067001342773
ँदैछ	-18.945066452026367
स्ते	-18.94606590270996
ेवार	-18.947067260742188
▁हेलो	-18.94806671142578
▁सुरुवात	-18.949066162109375
▁स्वाभाविक	-18.9500675201416
▁असी	-18.951066970825195
▁ठिकै	-18.95206642150879
▁पाउँदैन	-18.953065872192383
▁समाचारमा	-18.95406723022461
्मी	-18.955066680908203
▁चल्	-18.956066131591797
▁भनिस	-18.957067489624023
▁लेख्नु	-18.958066940307617
▁स्वस्थ	-18.95906639099121
▁देखिँदैन	-18.960065841674805
डामा	-18.96106719970703
▁ड्राइ	-18.962066650390625
▁ग्रामीण	-18.96306610107422
▁पुरस्कार	-18.964067459106445
ेकै	-18.96506690979004
▁ब्याक	-18.966066360473633
[...]
