<unk>	0
<s>	0
</s>	0
▁प	-0
न्	-1
▁ह	-2
▁स	-3
को	-4
▁म	-5
्य	-6
▁त	-7
▁क	-8
▁अ	-9
र्	-10
्र	-11
ला	-12
▁ग	-13
मा	-14
रू	-15
ले	-16
हरू	-17
नि	-18
▁भ	-19
▁च	-20
▁र	-21
▁ब	-22
हि	-23
ने	-24
स्	-25
ाम	-26
▁चा	-27
▁त्य	-28
ेर	-29
▁छ	-30
▁ज	-31
नु	-32
▁चाहि	-33
▁द	-34
▁चाहिँ	-35
▁य	-36
ार	-37
लाई	-38
▁ए	-39
▁आ	-40
न्छ	-41
▁गर्	-42
▁न	-43
▁पनि	-44
का	-45
▁अब	-46
ति	-47
क्	-48
▁हाम	-49
ान	-50
ाँ	-51
▁हु	-52
▁उ	-53
▁ख	-54
ाउ	-55
यो	-56
स्त	-57
▁व	-58
▁हो	-59
्रो	-60
दा	-61
लि	-62
ाइ	-63
▁ला	-64
िन	-65
▁फ	-66
▁गर	-67
ुर	-68
▁प्र	-69
▁हामी	-70
पा	-71
ल्	-72
▁थ	-73
म्	-74
▁त्यो	-75
एको	-76
▁के	-77
ेको	-78
्या	-79
▁एक	-80
टा	-81
▁लाग	-82
ीहरू	-83
▁मा	-84
▁ध	-85
ना	-86
▁हुन्छ	-87
▁सा	-88
▁भने	-89
▁यो	-90
हाँ	-91
ता	-92
▁थि	-93
दै	-94
▁ल	-95
स्तो	-96
▁त्यस	-97
ाट	-98
▁अनि	-99
ही	-100
एर	-101
ैले	-102
▁नि	-103
पाई	-104
▁तपाई	-105
▁मलाई	-106
▁स्	-107
त्र	-108
▁तपाईँ	-109
▁ट	-110
ौँ	-111
िक	-112
नुह	-113
्यो	-114
▁मेर	-115
ेरि	-116
ेख	-117
ाउँ	-118
▁राम	-119
वा	-120
त्	-121
ङ्	-122
▁धेर	-123
▁मेरो	-124
▁दु	-125
▁धेरै	-126
▁मैले	-127
▁घ	-128
▁वि	-129
ुन	-130
न्त	-131
री	-132
▁नै	-133
▁सब	-134
▁कि	-135
बाट	-136
▁आफ	-137
▁श	-138
▁राम्रो	-139
्न	-140
▁ड	-141
▁भन्	-142
लो	-143
इन	-144
▁एउ	-145
दम	-146
▁बि	-147
▁यस	-148
गा	-149
▁एकदम	-150
ली	-151
▁एउटा	-152
▁लागि	-153
▁रा	-154
▁हाम्रो	-155
या	-156
हिले	-157
▁दि	-158
ेस	-159
▁है	-160
रि	-161
ुरा	-162
खेरि	-163
▁उन	-164
र्छ	-165
्छ	-166
▁इ	-167
दाखेरि	-168
▁अन्त	-169
ोस्	-170
▁सबै	-171
िस	-172
▁दुई	-173
▁सि	-174
दि	-175
▁गर्छ	-176
▁हामीले	-177
▁जा	-178
▁तर	-179
▁पा	-180
▁होइन	-181
रा	-182
▁मन	-183
▁आफ्न	-184
▁थियो	-185
दैन	-186
न्ट	-187
▁बा	-188
▁अहिले	-189
▁सक्	-190
▁त्यहाँ	-191
नुहोस्	-192
रह	-193
स्ट	-194
▁सु	-195
कि	-196
▁हज	-197
ेखि	-198
न्ड	-199
कार	-200
▁ठ	-201
▁खा	-202
▁गरि	-203
न्द	-204
ँग	-205
▁गर्नु	-206
ेल	-207
▁एकदमै	-208
▁आफ्नो	-209
ित	-210
प्	-211
▁थिए	-212
▁को	-213
ानी	-214
▁भयो	-215
हा	-216
▁गर्न	-217
▁भएको	-218
▁कुरा	-219
ेट	-220
▁घर	-221
जा	-222
उँ	-223
▁भा	-224
ुल	-225
ाँच	-226
सा	-227
द्	-228
देखि	-229
डी	-230
▁तिन	-231
क्ष	-232
▁उनीहरू	-233
हरूले	-234
छि	-235
▁सम	-236
ती	-237
क्स	-238
▁ने	-239
ैन	-240
िट	-241
न्न	-242
▁कति	-243
न्य	-244
ाना	-245
▁का	-246
सँग	-247
▁त्यही	-248
▁बे	-249
▁रह	-250
▁हे	-251
्ट	-252
▁कार	-253
नुहु	-254
▁अर्	-255
▁छैन	-256
ुट	-257
▁लि	-258
स्तै	-259
▁किन	-260
▁हा	-261
▁अलि	-262
म्प	-263
▁जुन	-264
छु	-265
▁छन्	-266
▁हजार	-267
्रा	-268
▁देख	-269
ङ्ग	-270
कै	-271
▁क्	-272
म्ब	-273
रहेको	-274
जि	-275
▁हुँ	-276
प्र	-277
▁पर्	-278
न्स	-279
▁गा	-280
▁मि	-281
▁काम	-282
▁पर	-283
हरूको	-284
▁खे	-285
▁जस्तो	-286
▁दा	-287
▁गरेर	-288
▁कुन	-289
नुप	-290
िय	-291
जना	-292
▁बन	-293
िम	-294
ेन्ट	-295
▁पु	-296
▁चि	-297
नुहुन्छ	-298
म्म	-299
ब्	-300
▁गरेको	-301
ग्	-302
ेन	-303
▁रो	-304
▁नेपा	-305
▁केही	-306
▁गर्ने	-307
वि	-308
▁छु	-309
▁पाँच	-310
▁प्रा	-311
स्थ	-312
तिर	-313
▁मान्छ	-314
▁बो	-315
▁भए	-316
डि	-317
▁कु	-318
सी	-319
▁त्यस्तो	-320
▁खो	-321
▁अलिक	-322
▁भनेर	-323
▁राख	-324
▁यहाँ	-325
ेश	-326
्च	-327
▁दिन	-328
▁तपाईँको	-329
▁लाग्छ	-330
▁हि	-331
▁चार	-332
ेछ	-333
▁साथ	-334
पछि	-335
र्ट	-336
▁थिएँ	-337
हरूलाई	-338
▁कस	-339
▁बु	-340
▁लग	-341
जी	-342
▁सो	-343
▁पहि	-344
▁भन्ने	-345
षा	-346
ाउँछ	-347
ाउनु	-348
▁फो	-349
▁आउँ	-350
▁गरे	-351
हरूमा	-352
▁मान्छे	-353
▁से	-354
नी	-355
न्दा	-356
▁पढ	-357
▁पर्छ	-358
▁मु	-359
▁विश	-360
▁गर्दा	-361
▁सात	-362
▁कुनै	-363
वार	-364
▁आठ	-365
▁हामीलाई	-366
▁मात्र	-367
▁वा	-368
थ्यो	-369
▁जि	-370
डा	-371
ाउन	-372
योग	-373
▁खाना	-374
▁नेपाली	-375
▁नौ	-376
▁यस्तो	-377
▁गाउँ	-378
र्म	-379
▁मो	-380
▁परि	-381
ङ्क	-382
▁कारण	-383
न्छु	-384
सम्म	-385
भा	-386
ाउने	-387
▁सय	-388
भि	-389
टि	-390
▁जस	-391
▁रु	-392
बा	-393
▁पानी	-394
भन्दा	-395
▁भएर	-396
▁समय	-397
▁रहेछ	-398
वटा	-399
ऱ्यो	-400
्री	-401
▁भाषा	-402
▁ले	-403
▁अरू	-404
▁बेला	-405
▁झ	-406
▁गर्दाखेरि	-407
▁एक्स	-408
ह्र	-409
निस	-410
▁भार	-411
रूप	-412
क्ट	-413
▁आइ	-414
ेक	-415
न्ध	-416
ाइस	-417
▁सं	-418
्रि	-419
▁ठु	-420
▁जो	-421
▁फेरि	-422
▁तपाईँले	-423
▁जस्तै	-424
▁हेर्	-425
ानो	-426
लिङ	-427
द्ध	-428
▁क्ष	-429
▁रूप	-430
▁छो	-431
▁था	-432
▁ब्या	-433
▁स्क	-434
ष्ट	-435
▁या	-436
्नु	-437
मान	-438
▁वर्	-439
ेत्र	-440
▁त्यति	-441
सि	-442
▁उप	-443
म्बर	-444
स्ता	-445
▁कस्तो	-446
▁पै	-447
त्त	-448
▁मानिस	-449
दो	-450
टी	-451
▁गर्नुहोस्	-452
ानीहरू	-453
▁राज	-454
▁ओ	-455
्ने	-456
▁व्य	-457
ारी	-458
▁पहिला	-459
▁पो	-460
▁त्यसमा	-461
▁यु	-462
लको	-463
▁दार्	-464
ेका	-465
रको	-466
ूर्	-467
भने	-468
▁ता	-469
छौँ	-470
▁त्यसको	-471
ारे	-472
▁प्रकार	-473
▁खु	-474
नुभ	-475
▁हुने	-476
जन	-477
लमा	-478
▁किनभने	-479
▁दार्जि	-480
▁हुँदैन	-481
▁स्ट	-482
▁दार्जिलिङ	-483
▁भइ	-484
रमा	-485
पि	-486
न्द्र	-487
थि	-488
▁टाइ	-489
त्य	-490
नुपर्छ	-491
र्ने	-492
▁सर	-493
▁रूपमा	-494
ल्ला	-495
स्क	-496
ेष	-497
▁गु	-498
हार	-499
▁बस	-500
▁ठुलो	-501
ेँ	-502
▁मनप	-503
रो	-504
▁उहाँ	-505
▁गो	-506
▁क्षेत्र	-507
▁घरमा	-508
चार	-509
ज्	-510
▁खेल्	-511
▁अलिकति	-512
चा	-513
▁फि	-514
▁पैसा	-515
▁चाह	-516
▁कोही	-517
▁फोन	-518
रण	-519
▁हजुर	-520
▁त्यसलाई	-521
मि	-522
ैँ	-523
▁बना	-524
रहरू	-525
्रम	-526
▁ढ	-527
प्रेस	-528
▁आउँछ	-529
▁सह	-530
रे	-531
ीमा	-532
▁बढ	-533
लेर	-534
▁जब	-535
▁हुन्	-536
क्षा	-537
▁उनीहरूले	-538
▁एक्सप्रेस	-539
्रे	-540
▁आज	-541
ीत	-542
र्क	-543
▁शि	-544
▁सानो	-545
▁प्रयोग	-546
▁नानीहरू	-547
▁आउ	-548
▁भि	-549
र्थ	-550
▁समा	-551
ुरु	-552
प्त	-553
▁उस	-554
▁गर्छु	-555
▁पुरा	-556
▁दस	-557
▁भारत	-558
्व	-559
त्ति	-560
▁बज	-561
निर	-562
मै	-563
▁महि	-564
▁स्व	-565
▁कल	-566
▁स्कुल	-567
सु	-568
ध्य	-569
याँ	-570
▁खेल	-571
▁विशेष	-572
ीको	-573
▁होला	-574
▁फुल	-575
▁पि	-576
ुरो	-577
▁बेस	-578
ङ्गा	-579
▁भनेको	-580
धा	-581
▁उयो	-582
▁बस्	-583
र्स	-584
▁उन्न	-585
▁मह	-586
▁लगा	-587
▁अर्को	-588
▁अव	-589
▁आफू	-590
▁शू	-591
▁टि	-592
था	-593
क्त	-594
बल	-595
ेस्ट	-596
नमा	-597
्यु	-598
▁शून्य	-599
▁ना	-600
▁ठाउँ	-601
खा	-602
▁जी	-603
▁सक्नुहुन्छ	-604
▁भाइ	-605
चि	-606
▁कृ	-607
▁दो	-608
▁क्या	-609
टो	-610
▁जग्	-611
एका	-612
रु	-613
▁गएर	-614
्यान	-615
ाइदि	-616
▁जग्गा	-617
▁मात्रै	-618
एँ	-619
सक	-620
▁बेसी	-621
डर	-622
▁पछि	-623
दिन	-624
▁रि	-625
▁त्यसले	-626
▁तपाईँलाई	-627
▁भन्छ	-628
▁डि	-629
▁भन्दा	-630
▁वर्ष	-631
र्ड	-632
▁प्	-633
▁चला	-634
देश	-635
▁टाइम	-636
▁कारणले	-637
▁पका	-638
▁बाहि	-639
▁यति	-640
▁हेर	-641
▁उन्नाइस	-642
▁घु	-643
▁कुराहरू	-644
▁लिएर	-645
▁त्यसरी	-646
▁प्राय	-647
म्पो	-648
▁नम्बर	-649
ल्छ	-650
▁गाडी	-651
▁कसरी	-652
▁जति	-653
▁गर्छौँ	-654
▁कुरो	-655
्यक	-656
ोर	-657
▁ग्र	-658
▁डे	-659
ामी	-660
▁लेख	-661
निक	-662
ोक	-663
▁नयाँ	-664
दछ	-665
सार	-666
▁भन्दाखेरि	-667
▁गरिएको	-668
ृति	-669
▁अनु	-670
▁सक	-671
पुर	-672
लहरू	-673
▁त्यहाँदेखि	-674
▁लाग्यो	-675
▁रुप	-676
▁सिक्	-677
▁अझ	-678
▁मे	-679
च्छ	-680
ुक	-681
▁गर्नुप	-682
ल्य	-683
▁सकि	-684
▁मजा	-685
▁प्रति	-686
▁पर्ने	-687
दैछ	-688
बि	-689
▁पुर	-690
▁तिम	-691
नको	-692
▁जाँ	-693
नेको	-694
▁स्वा	-695
द्वार	-696
▁भु	-697
▁भो	-698
▁ति	-699
▁पठ	-700
▁इन्ड	-701
▁सू	-702
▁जीव	-703
सक्	-704
यर	-705
▁कालि	-706
▁होस्	-707
▁ब्याङ्क	-708
लय	-709
▁स्थ	-710
▁अफ	-711
म्पोङ	-712
कु	-713
▁पाइ	-714
▁केन्द्र	-715
▁बिह	-716
▁अर्डर	-717
बे	-718
▁यसको	-719
▁बाहिर	-720
फा	-721
भाव	-722
▁आएको	-723
▁थु	-724
▁टा	-725
▁कालिम्पोङ	-726
ीहरूले	-727
समा	-728
▁त्यस्तै	-729
दी	-730
▁जिल्ला	-731
मो	-732
▁यसरी	-733
▁अन	-734
स्था	-735
▁कम्	-736
ाउनुहोस्	-737
▁गर्छन्	-738
▁लु	-739
▁अस्	-740
▁राज्य	-741
▁प्राप्त	-742
ँड	-743
ियाँ	-744
▁जान्छ	-745
सन	-746
च्च	-747
ूर्ण	-748
▁निम्	-749
▁यता	-750
▁सरकार	-751
▁जान	-752
▁खुसी	-753
▁ल्या	-754
▁रुपियाँ	-755
▁पे	-756
की	-757
पी	-758
▁उत्	-759
▁सक्छ	-760
ल्ट	-761
जहरू	-762
▁आमा	-763
श्च	-764
जु	-765
हु	-766
क्ति	-767
शा	-768
▁सम्	-769
▁निर्	-770
▁उनीहरूको	-771
लेको	-772
जिक	-773
ह्रै	-774
ट्ट	-775
सहरू	-776
्यौँ	-777
ह्रो	-778
▁बाट	-779
▁डा	-780
▁यी	-781
▁हुन	-782
▁कम	-783
▁बारे	-784
वे	-785
ीहरूलाई	-786
▁गीत	-787
▁गर्दै	-788
णा	-789
उनु	-790
ग्र	-791
एन	-792
ब्ध	-793
▁नाम	-794
▁गरिदि	-795
▁साह्रै	-796
▁थाहा	-797
▁ती	-798
धार	-799
▁चौ	-800
▁जानु	-801
▁सूच	-802
▁जन	-803
▁सन्	-804
त्ता	-805
नहरू	-806
▁व्यव	-807
▁एल	-808
▁निम्ति	-809
दान	-810
▁अस	-811
▁नभ	-812
▁चाहन्छु	-813
▁अथ	-814
के	-815
▁यसलाई	-816
द्वारा	-817
▁बुझ	-818
घि	-819
त्व	-820
र्ता	-821
▁प्रायः	-822
▁बोल्	-823
▁जु	-824
गर	-825
▁बिमा	-826
▁सब्	-827
िया	-828
लिस	-829
न्त्र	-830
▁कम्प	-831
▁बजार	-832
▁बारेमा	-833
लग	-834
▁ठिक	-835
मेन्ट	-836
▁अथवा	-837
▁सौ	-838
लब	-839
▁फर्	-840
▁उठ	-841
▁उनीहरूलाई	-842
▁हौ	-843
▁मुख	-844
▁ल्य	-845
राम	-846
लब्ध	-847
नेर	-848
पु	-849
▁त्यहाँनिर	-850
▁पार	-851
▁साइ	-852
ट्	-853
▁बाटो	-854
▁पऱ्यो	-855
छा	-856
▁फाइ	-857
िङ	-858
▁राम्र	-859
▁सामान	-860
ण्	-861
वी	-862
▁देश	-863
▁बिहान	-864
▁महिना	-865
▁यसमा	-866
▁देखि	-867
▁लाइ	-868
ष्	-869
▁रहेको	-870
न्ति	-871
▁आयो	-872
▁क्षेत्रमा	-873
▁उपलब्ध	-874
▁अन्य	-875
ाइल	-876
लाइन	-877
▁खाता	-878
जे	-879
धि	-880
▁अझै	-881
स्कृति	-882
▁औ	-883
विधा	-884
▁अगा	-885
कहरू	-886
▁पू	-887
▁दोका	-888
▁कतिवटा	-889
▁थिएन	-890
▁कहिले	-891
▁परिवार	-892
▁छौँ	-893
▁भन्नु	-894
▁रे	-895
▁जसले	-896
▁प्रकारको	-897
पो	-898
▁फे	-899
▁फुट	-900
▁समयमा	-901
न्ध्र	-902
▁घुम्	-903
्याक	-904
र्त	-905
▁प्रो	-906
▁अगाडि	-907
▁यदि	-908
्याम	-909
▁सबैभन्दा	-910
उने	-911
टिडी	-912
▁गरी	-913
▁साम	-914
▁सोच	-915
▁पुग	-916
▁एलटिडी	-917
एस	-918
भर	-919
ीहरूको	-920
ेसन	-921
▁गाई	-922
क्क	-923
सित	-924
▁मनपर्छ	-925
लै	-926
▁यही	-927
बर	-928
र्च	-929
▁क्र	-930
▁तिमी	-931
वास	-932
ठा	-933
र्न	-934
▁कम्ती	-935
▁जाने	-936
▁गएको	-937
पया	-938
▁टे	-939
▁छिट	-940
▁कृपया	-941
▁बाइ	-942
▁एक्	-943
आइ	-944
▁पूजा	-945
▁पन्ध्र	-946
द्या	-947
▁लाग्	-948
▁इन्	-949
▁कहाँ	-950
▁बङ्गा	-951
▁भनि	-952
लु	-953
▁यसले	-954
▁टो	-955
▁ड्र	-956
▁निकै	-957
▁हुनु	-958
▁हिन्द	-959
ँदैन	-960
त्रा	-961
▁बनाएर	-962
▁अहिलेको	-963
▁शा	-964
▁दिन्छ	-965
तीय	-966
▁जे	-967
धिक	-968
▁अनलाइन	-969
▁साह्रो	-970
▁गर्दछ	-971
ष्ट्र	-972
▁सेवा	-973
▁सक्छु	-974
भिन्न	-975
▁उनले	-976
ठो	-977
▁शिक्षा	-978
▁अरे	-979
▁लुगा	-980
गत	-981
▁आएर	-982
▁हात	-983
▁किनकि	-984
▁खोप	-985
▁चल	-986
▁गरेँ	-987
ेउ	-988
्स	-989
▁अप	-990
▁मै	-991
▁मोब	-992
▁लगाएर	-993
▁किस	-994
स्तु	-995
▁ट्र	-996
▁सम्प	-997
▁विभिन्न	-998
▁यसो	-999
▁सजि	-1000
त्तर	-1001
▁कसै	-1002
मी	-1003
▁सुरु	-1004
▁थुप्र	-1005
जो	-1006
लेट	-1007
▁अघि	-1008
स्थ्य	-1009
▁भेट	-1010
▁डर	-1011
▁भन	-1012
▁सकिन्छ	-1013
▁काट	-1014
▁साथी	-1015
ाउँछु	-1016
▁हिँड	-1017
▁इन्डिया	-1018
▁थुप्रै	-1019
षय	-1020
वाद	-1021
▁मू	-1022
स्प	-1023
▁जहाँ	-1024
कारी	-1025
▁चिया	-1026
▁पाउँछ	-1027
रहेका	-1028
▁त्यहाँबाट	-1029
▁छुट	-1030
ञ्	-1031
यौँ	-1032
▁रोप	-1033
▁आफ्नै	-1034
चर	-1035
सो	-1036
▁गाउँमा	-1037
किम	-1038
लाइ	-1039
दिनँ	-1040
ल्ली	-1041
▁लागेको	-1042
▁बाँ	-1043
▁मान्छेहरू	-1044
इनँ	-1045
माण	-1046
्यास	-1047
जमा	-1048
▁श्री	-1049
▁विषय	-1050
▁टाढ	-1051
▁न्य	-1052
▁ते	-1053
▁भएन	-1054
▁बनाउनु	-1055
▁आँ	-1056
▁मौ	-1057
िना	-1058
▁छा	-1059
▁सङ्ग	-1060
▁हुन्थ्यो	-1061
▁स्वास्थ्य	-1062
▁मत	-1063
ल्प	-1064
▁माथि	-1065
▁भइरहेको	-1066
ण्ड	-1067
▁मगा	-1068
▁त्यसै	-1069
स्या	-1070
▁बिस	-1071
▁खाने	-1072
▁गरिन्छ	-1073
▁पाउँ	-1074
▁व्यक्ति	-1075
▁हर	-1076
▁गयो	-1077
बारे	-1078
पर	-1079
▁मजाले	-1080
ड्	-1081
्यक्रम	-1082
▁परिव	-1083
▁अँ	-1084
▁आउने	-1085
▁हुन्छन्	-1086
▁गर्नुपर्छ	-1087
▁सिक	-1088
▁धर्म	-1089
▁सामा	-1090
▁मोबाइल	-1091
नुभयो	-1092
र्ष	-1093
ृत्य	-1094
▁हुनुहुन्छ	-1095
▁नराम	-1096
तो	-1097
▁समस्या	-1098
▁सक्छौँ	-1099
वश	-1100
▁ऊ	-1101
र्श	-1102
▁भुक्त	-1103
▁मानिसहरू	-1104
पल्ट	-1105
▁अहिलेसम्म	-1106
ढी	-1107
पट्ट	-1108
▁राम्रै	-1109
▁रिस	-1110
चित्र	-1111
▁घरको	-1112
बु	-1113
▁सजिलो	-1114
ेम	-1115
न्नु	-1116
▁मन्	-1117
▁फिल्	-1118
न्थ्यो	-1119
▁गरेका	-1120
डो	-1121
▁भाग	-1122
▁फु	-1123
्यान्ड	-1124
▁नराम्रो	-1125
▁प्रकारले	-1126
त्त्व	-1127
▁गऱ्यो	-1128
टक	-1129
▁खेती	-1130
दन	-1131
▁साथीहरू	-1132
▁अम	-1133
▁सुविधा	-1134
किङ	-1135
▁निका	-1136
▁खालको	-1137
▁गरिरहेको	-1138
ःख	-1139
रले	-1140
▁मुख्य	-1141
▁लोक	-1142
▁कार्यक्रम	-1143
▁जल	-1144
ेड	-1145
न्टा	-1146
▁हाल्	-1147
▁जसमा	-1148
▁सूची	-1149
▁परिवर्त	-1150
सको	-1151
▁अनुभ	-1152
▁कले	-1153
▁दुःख	-1154
▁नेपाल	-1155
▁अभ	-1156
▁चलचित्र	-1157
नुपर्ने	-1158
▁नजिक	-1159
प्ता	-1160
▁भएका	-1161
▁एकजना	-1162
▁परेको	-1163
▁जाँच	-1164
गु	-1165
ारा	-1166
▁खि	-1167
▁इन्ट	-1168
हन	-1169
▁विद्या	-1170
धान	-1171
▁पुस्त	-1172
पट्टि	-1173
▁छिटो	-1174
▁अस्ति	-1175
▁फुटबल	-1176
▁सिका	-1177
▁धु	-1178
▁सर्	-1179
्छु	-1180
▁बग	-1181
▁दिने	-1182
▁फोटो	-1183
▁मिठो	-1184
▁यस्तै	-1185
▁राम्रोसँग	-1186
ज्ञ	-1187
▁भू	-1188
▁मतलब	-1189
कुद	-1190
वरी	-1191
▁उनी	-1192
च्छा	-1193
▁साथै	-1194
ल्यो	-1195
▁बाह्र	-1196
▁चे	-1197
▁बजी	-1198
त्म	-1199
▁बाइक	-1200
▁देखेर	-1201
ल्लो	-1202
▁विश्व	-1203
▁बत	-1204
▁सबैजना	-1205
डमा	-1206
▁खेलकुद	-1207
ञ्च	-1208
▁राख्	-1209
▁मगाएको	-1210
पूर्ण	-1211
▁महिला	-1212
ेज	-1213
▁सफ	-1214
▁ट्रा	-1215
ुरी	-1216
▁दे	-1217
▁दाजु	-1218
▁ठाउँमा	-1219
ध्ये	-1220
▁अनुभव	-1221
▁कामहरू	-1222
सम	-1223
यास	-1224
राख	-1225
▁ढि	-1226
▁व्या	-1227
▁भारतीय	-1228
▁यात्रा	-1229
▁उसले	-1230
लिटी	-1231
▁प्रश	-1232
नाले	-1233
भित्र	-1234
▁छोरा	-1235
टर	-1236
एपछि	-1237
▁पश्च	-1238
िसा	-1239
▁किनेको	-1240
▁सक्दैन	-1241
▁सिक्किम	-1242
▁आफूले	-1243
▁चिज	-1244
▁फुलहरू	-1245
▁भनौँ	-1246
▁घट	-1247
▁कम्पनी	-1248
▁नानीहरूलाई	-1249
▁जीवन	-1250
▁मन्दि	-1251
मु	-1252
ेलु	-1253
▁ब्	-1254
▁योजना	-1255
▁फा	-1256
आई	-1257
▁म्या	-1258
▁फिल्म	-1259
▁खानु	-1260
▁भइसक	-1261
▁संस्कृति	-1262
्वास	-1263
भी	-1264
▁भोलि	-1265
▁त्यसपछि	-1266
▁पहिलो	-1267
▁अति	-1268
▁बसेर	-1269
न्ज	-1270
ब्द	-1271
▁छोड	-1272
▁अग	-1273
लन	-1274
ज्जा	-1275
▁शेख	-1276
ेम्बर	-1277
▁किसिम	-1278
▁खान्छ	-1279
माइ	-1280
▁आफै	-1281
▁कला	-1282
▁नानी	-1283
▁महत्त्व	-1284
▁घन्टा	-1285
ुल्	-1286
▁परिवर्तन	-1287
▁आइपु	-1288
वश्यक	-1289
▁खोज	-1290
▁प्या	-1291
यु	-1292
भरि	-1293
ाइट	-1294
साय	-1295
▁छेउ	-1296
▁प्ला	-1297
नो	-1298
्दा	-1299
▁जन्	-1300
▁दसैँ	-1301
▁उनको	-1302
ामा	-1303
▁क्वा	-1304
▁सब्जी	-1305
▁प्रभाव	-1306
▁ड्राइ	-1307
▁दिएको	-1308
▁राई	-1309
ेपछि	-1310
▁प्रदान	-1311
ल्यै	-1312
▁विचार	-1313
▁हालेर	-1314
▁साग	-1315
नुभएको	-1316
्छौँ	-1317
▁अठ	-1318
▁बुक	-1319
▁सफा	-1320
▁ध्यान	-1321
गो	-1322
र्नु	-1323
▁क्ला	-1324
▁मूल्य	-1325
काइ	-1326
▁सहयोग	-1327
▁फ्	-1328
▁माया	-1329
▁टाइममा	-1330
यम	-1331
ृत	-1332
▁जाति	-1333
▁बनाएको	-1334
▁चाहिन्छ	-1335
▁लो	-1336
डियो	-1337
छन्	-1338
न्ने	-1339
क्कै	-1340
ल्ने	-1341
▁दामी	-1342
▁पस	-1343
▁कलर	-1344
▁खान	-1345
▁अधिक	-1346
थेँ	-1347
▁नो	-1348
▁महा	-1349
▁हेलो	-1350
▁बेच	-1351
▁दिनु	-1352
▁मेरा	-1353
र्फ	-1354
▁डान्स	-1355
रहेछ	-1356
मेर	-1357
▁चो	-1358
र्खा	-1359
▁सम्ब	-1360
▁पश्चिम	-1361
▁विका	-1362
▁इच्छा	-1363
हीँ	-1364
▁आफूलाई	-1365
▁आवश्यक	-1366
▁जानकारी	-1367
यन	-1368
बिस	-1369
बी	-1370
▁भनी	-1371
▁भित्र	-1372
▁त्यसैले	-1373
▁कसैले	-1374
▁राष्ट्र	-1375
िसक	-1376
▁एम	-1377
ब्बे	-1378
▁दुर्	-1379
▁नग	-1380
पोर्ट	-1381
▁बन्द	-1382
▁हप्ता	-1383
▁ग्रामी	-1384
▁ब्र	-1385
▁सोध	-1386
▁सिलग	-1387
▁कार्य	-1388
हो	-1389
▁न्यु	-1390
▁दिइ	-1391
परि	-1392
▁कुक	-1393
▁भर्	-1394
▁पर्यो	-1395
▁हेरेर	-1396
▁याद	-1397
▁उसको	-1398
▁बस्त	-1399
▁मासु	-1400
▁रेस्ट	-1401
▁दाम	-1402
▁सुर	-1403
▁हेर्नु	-1404
▁ग्रामीण	-1405
ूर्व	-1406
▁प्रत्य	-1407
रुवा	-1408
▁तेल	-1409
▁रोप्	-1410
▁हस्प	-1411
ँदा	-1412
▁मस	-1413
ानमा	-1414
थ्यौँ	-1415
स्थित	-1416
▁दोकान	-1417
▁सबैले	-1418
▁मानिसहरूले	-1419
एम	-1420
▁युज	-1421
▁वरि	-1422
▁हस्पिट	-1423
▁मान्छेले	-1424
▁'	-1425
पाइ	-1426
▁खानाहरू	-1427
▁चिक	-1428
▁दुख	-1429
यक	-1430
▁बिच	-1431
▁फर्स्ट	-1432
रिया	-1433
िनको	-1434
▁चाड	-1435
▁पुग्	-1436
▁तपाईँँ	-1437
द्धि	-1438
्दै	-1439
▁तपाईँहरूले	-1440
▁फेस	-1441
▁योग	-1442
▁भारतको	-1443
लामा	-1444
ाउँदा	-1445
▁अवस्था	-1446
▁कुख	-1447
▁होट	-1448
हाल्छ	-1449
▁पाइन्छ	-1450
▁प्रदेश	-1451
थम	-1452
्रेस	-1453
▁भात	-1454
▁पर्य	-1455
ाउँछौँ	-1456
▁बस्ने	-1457
▁उहाँले	-1458
लिक	-1459
▁यस्ता	-1460
उन	-1461
ँदै	-1462
▁बङ्गाल	-1463
▁केन्द्रहरू	-1464
▁भूमि	-1465
▁हट	-1466
▁पाएँ	-1467
▁माछा	-1468
▁ज्या	-1469
▁जस्ता	-1470
▁यहाँनिर	-1471
▁एन्ड	-1472
लक	-1473
ाइन्छ	-1474
▁हेर्न	-1475
▁सङ्गीत	-1476
देखिको	-1477
ुरेन्ट	-1478
▁ढिलो	-1479
▁स्प	-1480
▁जाँदाखेरि	-1481
▁विश्वास	-1482
▁टु	-1483
▁नृत्य	-1484
▁आफ्	-1485
नुपर्	-1486
▁छोरी	-1487
▁धन्य	-1488
ल्ड	-1489
▁दबा	-1490
▁प्रमाण	-1491
डक्ट	-1492
लाहरू	-1493
▁दिल्ली	-1494
हित	-1495
्रिया	-1496
▁जनवरी	-1497
▁हुँदा	-1498
वरण	-1499
मिट	-1500
▁रेस्टुरेन्ट	-1501
ीले	-1502
▁पाहा	-1503
▁सत्र	-1504
▁उत्तर	-1505
▁सम्बन्ध	-1506
▁सम्झ	-1507
एफ	-1508
र्य	-1509
नाका	-1510
▁कुखुरा	-1511
आर	-1512
र्ज	-1513
ख्या	-1514
्यार	-1515
▁डेलि	-1516
ताब	-1517
्टा	-1518
हरूका	-1519
क्षण	-1520
मध्ये	-1521
मेल	-1522
▁एन	-1523
रलाई	-1524
▁बिरुवा	-1525
ीय	-1526
▁चु	-1527
नामा	-1528
ाउँछन्	-1529
▁छुइनँ	-1530
▁क्वालिटी	-1531
ल्स	-1532
बेला	-1533
रिका	-1534
▁दुध	-1535
▁विक	-1536
▁साँच	-1537
▁देखिन्छ	-1538
वेश	-1539
▁शै	-1540
ेरा	-1541
▁फर	-1542
▁स्त	-1543
▁सङ्क	-1544
ाइदिनु	-1545
▁गर्नुभ	-1546
▁बनाउने	-1547
तै	-1548
दु	-1549
▁अल	-1550
▁कर	-1551
त्या	-1552
▁सङ्	-1553
▁हुँदै	-1554
▁तपाईँहरूको	-1555
▁आक	-1556
ताको	-1557
▁जग्गामा	-1558
सक्छ	-1559
्युट	-1560
▁चरा	-1561
▁गर्द	-1562
्याक्स	-1563
▁सध	-1564
जीहरू	-1565
ठी	-1566
पत्र	-1567
ाँडा	-1568
▁अठार	-1569
कम	-1570
वल	-1571
स्कि	-1572
ाउन्ड	-1573
▁देखा	-1574
▁तिहार	-1575
सिक	-1576
▁एट	-1577
हरूबाट	-1578
▁बनाउन	-1579
▁भुट	-1580
से	-1581
▁कलेज	-1582
टै	-1583
▁शब्द	-1584
▁भुक्तानी	-1585
ियन	-1586
▁डो	-1587
र्यो	-1588
▁भाडा	-1589
▁सधैँ	-1590
▁बेलामा	-1591
ाइन	-1592
छाडि	-1593
▁केटा	-1594
निङ	-1595
्रमण	-1596
▁जलपाइ	-1597
▁तरिका	-1598
▁मज्जा	-1599
▁विकास	-1600
▁जुत्ता	-1601
▁धन्यवाद	-1602
▁दृ	-1603
▁आफ्ना	-1604
▁प्राइ	-1605
▁वरिपरि	-1606
फो	-1607
▁पहिलाको	-1608
ल्नु	-1609
नाहरू	-1610
▁भन्यो	-1611
▁वस्तु	-1612
▁चिजहरू	-1613
▁त्यहीँ	-1614
▁दबाई	-1615
▁हिजो	-1616
बार	-1617
▁फिट	-1618
▁किताब	-1619
▁चित्र	-1620
खर	-1621
लका	-1622
▁उत्पा	-1623
▁पर्दैन	-1624
▁प्रत्येक	-1625
▁"	-1626
मिन	-1627
▁कप	-1628
िकेट	-1629
ाउँदै	-1630
▁लामो	-1631
▁भनेदेखि	-1632
▁टुर	-1633
थे	-1634
▁उल्	-1635
▁पचा	-1636
▁ग्रा	-1637
▁ग्यास	-1638
▁अनुसार	-1639
▁पुरानो	-1640
▁गरम	-1641
▁वे	-1642
▁चढ	-1643
▁पत्र	-1644
▁उसलाई	-1645
▁हेर्छ	-1646
▁सरकारले	-1647
▁कार्ड	-1648
▁ल्याएर	-1649
▁जन्म	-1650
▁राखेर	-1651
▁हिन्दी	-1652
▁एस	-1653
▁बाबा	-1654
दमा	-1655
▁ज्	-1656
▁मल	-1657
त्मक	-1658
▁आइपुग	-1659
▁वेस्ट	-1660
घार	-1661
▁एड	-1662
▁भएँ	-1663
क्षित	-1664
▁भन्न	-1665
▁चलाउँ	-1666
पन	-1667
▁बहि	-1668
▁प्रक	-1669
▁मौसम	-1670
▁सां	-1671
▁पेस	-1672
▁स्थि	-1673
हरूसँग	-1674
▁भूमिका	-1675
माथि	-1676
लाग्	-1677
▁ज्ञ	-1678
▁डिस	-1679
▁ठिकै	-1680
द्द	-1681
िसन	-1682
ष्टि	-1683
▁असु	-1684
▁मेन	-1685
▁इन्टर	-1686
▁जाँदा	-1687
ऱ्य	-1688
▁बनि	-1689
▁हरेक	-1690
▁परम्प	-1691
िनँ	-1692
दिनु	-1693
▁रोग	-1694
▁जीवनमा	-1695
▁तल	-1696
▁कमा	-1697
▁रेल	-1698
▁कतिजना	-1699
िभ	-1700
तको	-1701
▁दुइ	-1702
ानहरू	-1703
▁टाढो	-1704
▁सामान्य	-1705
कको	-1706
ेरी	-1707
ानको	-1708
स्कार	-1709
▁साँच्च	-1710
धी	-1711
अनु	-1712
वाह	-1713
▁मग	-1714
डिया	-1715
हिल्यै	-1716
▁हुनेछ	-1717
▁राखेको	-1718
▁मान्छेहरूले	-1719
्रु	-1720
▁कथा	-1721
▁परम्परा	-1722
▁सामानहरू	-1723
क्षि	-1724
्युब	-1725
▁स्थानी	-1726
रका	-1727
▁दर्ता	-1728
▁रमाइ	-1729
ुट्टा	-1730
▁किसिमको	-1731
▁स्कुलमा	-1732
▁गइ	-1733
▁हाम्रा	-1734
▁स्थानीय	-1735
भाइ	-1736
▁युट	-1737
▁लिन	-1738
▁पानीको	-1739
▁त्यहाँको	-1740
व्य	-1741
दर्श	-1742
्रेड	-1743
▁चुन	-1744
▁सेन्ट	-1745
वर	-1746
अनुसार	-1747
▁पछाडि	-1748
ल्यान्ड	-1749
▁घुम्नु	-1750
▁राम्रोसँगले	-1751
▁दिनमा	-1752
▁जिल्लामा	-1753
पनि	-1754
त्ती	-1755
▁अभि	-1756
▁तार	-1757
▁शरी	-1758
ाइएको	-1759
▁आधार	-1760
▁एघार	-1761
▁राखि	-1762
▁टिका	-1763
▁पकाउँ	-1764
▁ज्यादा	-1765
ंह	-1766
लम	-1767
▁खाँ	-1768
▁सबैलाई	-1769
र्ग	-1770
▁पास	-1771
▁पर्दा	-1772
टमा	-1773
▁मान	-1774
▁सहा	-1775
डीहरू	-1776
▁जङ्ग	-1777
▁समाज	-1778
▁सुन्	-1779
्दाखेरि	-1780
▁विषयमा	-1781
▁नानीहरूले	-1782
▁डु	-1783
न्या	-1784
▁उता	-1785
▁भारतमा	-1786
▁मात्रामा	-1787
▁तथा	-1788
▁उनलाई	-1789
▁कृष	-1790
▁व्यवसाय	-1791
▁पेट	-1792
▁युवा	-1793
▁सुन्द	-1794
▁राख्नु	-1795
▁महत्त्वपूर्ण	-1796
ताहरू	-1797
▁प्रयास	-1798
▁लाग्दैन	-1799
▁धा	-1800
▁त्यसो	-1801
▁सम्पर्क	-1802
ख्रा	-1803
▁खेला	-1804
▁पचास	-1805
▁खेल्नु	-1806
▁व्यवस्था	-1807
▁वी	-1808
क्टर	-1809
▁बेलु	-1810
▁नजिकै	-1811
नुपऱ्यो	-1812
स्कृतिक	-1813
▁झन्	-1814
▁ऋ	-1815
पाल	-1816
▁टी	-1817
▁बिग	-1818
▁पार्ट	-1819
▁बाख्रा	-1820
▁भनिन्छ	-1821
▁रमाइलो	-1822
िसो	-1823
▁आदि	-1824
▁गुरु	-1825
▁दिएर	-1826
बो	-1827
▁मन्दिर	-1828
▁राष्ट्रिय	-1829
तिक	-1830
▁तय	-1831
▁फल	-1832
▁लाख	-1833
▁उच्च	-1834
▁कर्म	-1835
▁ड्राइभर	-1836
▁देखाउनुहोस्	-1837
लेन्स	-1838
▁मनपर्ने	-1839
▁सांस्कृतिक	-1840
फ्ट	-1841
लेख	-1842
टहरू	-1843
राब	-1844
▁बिमार	-1845
▁पाउन	-1846
▁सर्ट	-1847
▁बिहार	-1848
▁विद्यार्थ	-1849
▁आन	-1850
▁थप	-1851
्याकेट	-1852
घा	-1853
ढा	-1854
▁खेल्ने	-1855
भाग	-1856
▁सँग	-1857
▁सन्त	-1858
▁सरकारी	-1859
▁दार्जिलिङमा	-1860
द्य	-1861
▁आउनु	-1862
चो	-1863
बुक	-1864
▁बेलुका	-1865
▁गर्नुहुन्छ	-1866
▁तिस	-1867
▁पहिले	-1868
▁स्थिति	-1869
▁बिक	-1870
▁सही	-1871
▁सान	-1872
▁पच्च	-1873
▁फाइदा	-1874
दे	-1875
तिहा	-1876
न्डा	-1877
▁सफल	-1878
▁मिलेर	-1879
▁समाचार	-1880
डको	-1881
ष्ण	-1882
▁भग	-1883
▁डिज	-1884
▁दाल	-1885
लिरहेको	-1886
▁गरिएका	-1887
चित	-1888
गुडी	-1889
▁भाषाको	-1890
▁उहाँहरूले	-1891
करण	-1892
नेछ	-1893
ट्टा	-1894
▁कर्	-1895
▁कवि	-1896
▁जमा	-1897
▁मोमो	-1898
▁लक्ष	-1899
वृ	-1900
तमा	-1901
▁नाच	-1902
▁बढी	-1903
▁महँग	-1904
▁तेह्र	-1905
▁पढ्नु	-1906
▁बसेको	-1907
▁पच्चिस	-1908
▁बच	-1909
▁भे	-1910
▁अगस्त	-1911
▁लाग्ने	-1912
कल	-1913
दार	-1914
▁टिक	-1915
▁प्रधान	-1916
शु	-1917
▁वै	-1918
▁बहु	-1919
▁आँखा	-1920
▁पाएको	-1921
▁पूर्ण	-1922
▁खुट्टा	-1923
▁साँच्चै	-1924
▁सब्जीहरू	-1925
डे	-1926
श्य	-1927
सिस	-1928
▁रुख	-1929
ग्राम	-1930
▁क्याम	-1931
▁सोह्र	-1932
▁गर्नुपर्ने	-1933
पमा	-1934
▁काठ	-1935
▁पाउँदैन	-1936
िल	-1937
▁चौध	-1938
▁पाउ	-1939
▁टुरि	-1940
▁सुन्दर	-1941
▁पौ	-1942
▁समु	-1943
▁अङ्ग	-1944
▁गाउँको	-1945
▁पुस्तक	-1946
▁आवे	-1947
▁रकम	-1948
▁होम	-1949
▁खर्च	-1950
▁बिस्त	-1951
▁क्रिकेट	-1952
पको	-1953
▁शु	-1954
▁माइ	-1955
▁चिकन	-1956
▁ग्राह	-1957
ंश	-1958
णी	-1959
▁वृ	-1960
▁गेम	-1961
▁टेक्	-1962
गल	-1963
काश	-1964
▁आशा	-1965
▁खिच	-1966
▁साय	-1967
▁सेल	-1968
▁ब्रा	-1969
▁क्लास	-1970
बाद	-1971
▁घो	-1972
▁भएकोले	-1973
▁युट्युब	-1974
वै	-1975
सुस	-1976
▁माग	-1977
▁एउटै	-1978
▁आनन्द	-1979
▁दुईवटा	-1980
▁यहाँको	-1981
▁सक्दिनँ	-1982
तहरू	-1983
▁तुल	-1984
▁घरमै	-1985
▁एक्काइ	-1986
▁लगाउनु	-1987
केर	-1988
बन्ध	-1989
▁थियौँ	-1990
▁भन्दै	-1991
▁कुरामा	-1992
▁खातामा	-1993
▁दिनुहोस्	-1994
फी	-1995
▁असल	-1996
▁घाँ	-1997
▁देखेको	-1998
▁भाषामा	-1999
▁भर्खर	-2000
▁सक्ने	-2001
ोला	-2002
ध्यम	-2003
▁मिन	-2004
▁हल्	-2005
▁महसुस	-2006
मुख	-2007
▁धो	-2008
▁पर्ख	-2009
▁छेत्र	-2010
▁दक्षि	-2011
आइसी	-2012
त्रो	-2013
िसाब	-2014
▁सुन	-2015
▁उमेर	-2016
▁प्ले	-2017
▁गीतहरू	-2018
▁बोल्नु	-2019
▁मान्छेलाई	-2020
रिक	-2021
▁गभ	-2022
▁चाम	-2023
▁उत्त	-2024
लाग्दो	-2025
प्ट	-2026
लित	-2027
▁इएस	-2028
▁एका	-2029
▁पर्व	-2030
▁प्रडक्ट	-2031
पे	-2032
▁दौ	-2033
लीको	-2034
▁हेल्	-2035
▁बिमारी	-2036
डहरू	-2037
न्छौँ	-2038
▁स्या	-2039
न्त्री	-2040
▁अर्कै	-2041
ाइरहेको	-2042
▁बजारमा	-2043
▁ढु	-2044
ग्री	-2045
▁चुनौ	-2046
▁निर्देश	-2047
ूह	-2048
ष्य	-2049
्मी	-2050
▁ढा	-2051
लाको	-2052
▁कुद	-2053
▁चिन्	-2054
▁मोहन	-2055
▁एकपल्ट	-2056
दर	-2057
▁निस्कि	-2058
▁इएसआइसी	-2059
▁नु	-2060
▁महँगो	-2061
▁व्याप	-2062
ल्न	-2063
न्छन्	-2064
▁छेउमा	-2065
▁नभएको	-2066
सँगै	-2067
▁नगर	-2068
▁नभए	-2069
▁मिला	-2070
▁आस	-2071
ुल्क	-2072
▁आलु	-2073
▁गर्दैन	-2074
▁राम्ररी	-2075
शी	-2076
स्य	-2077
▁कन्ट	-2078
▁निरा	-2079
▁किनेर	-2080
▁सिलगढी	-2081
▁तिनीहरू	-2082
नेट	-2083
र्भ	-2084
हेक	-2085
▁सिजन	-2086
▁बिक्री	-2087
▁लगाउने	-2088
▁कहिल्यै	-2089
्यू	-2090
▁खराब	-2091
▁छुट्ट	-2092
▁प्रेम	-2093
पय	-2094
▁भिडियो	-2095
ची	-2096
यता	-2097
रिय	-2098
ारै	-2099
▁सड	-2100
▁जसलाई	-2101
पता	-2102
ञ्जन	-2103
▁दिदी	-2104
िरहेको	-2105
णि	-2106
अलि	-2107
▁ओटि	-2108
स्तान	-2109
▁किलो	-2110
भरी	-2111
लीमा	-2112
▁अलिअलि	-2113
▁माध्यम	-2114
▁लगेर	-2115
▁हुँदो	-2116
▁बनाउँछ	-2117
▁काले	-2118
▁जसको	-2119
▁कतिपय	-2120
▁गरिदिनु	-2121
▁महिनामा	-2122
ाउँदाखेरि	-2123
▁मानिसहरूलाई	-2124
लले	-2125
▁रङ	-2126
काको	-2127
▁लगाएको	-2128
ाइज	-2129
िटी	-2130
▁पक	-2131
पाती	-2132
▁कता	-2133
▁पुरै	-2134
▁समूह	-2135
▁निस्क	-2136
▁छेत्री	-2137
▁जलपाइगुडी	-2138
भू	-2139
देन	-2140
▁काग	-2141
▁सहर	-2142
▁टाढा	-2143
▁देख्न	-2144
िन्	-2145
क्टो	-2146
▁मकै	-2147
न्तिम	-2148
▁पार्	-2149
▁कत्ति	-2150
ँदाखेरि	-2151
▁अस्पता	-2152
▁अच	-2153
▁भाव	-2154
▁कपडा	-2155
▁खोज्	-2156
▁जुलाई	-2157
▁ट्रेन	-2158
▁अन्तिम	-2159
▁तिमीलाई	-2160
▁त्यत्ति	-2161
वाई	-2162
▁यिन	-2163
▁अर्ग	-2164
▁साडी	-2165
हरूतिर	-2166
▁ओटिपी	-2167
▁लिएको	-2168
▁चाहिएको	-2169
डिङ	-2170
तार	-2171
बाटै	-2172
▁एयर	-2173
▁बिहा	-2174
▁सायद	-2175
▁भन्छु	-2176
▁हुनाले	-2177
▁त्यस्तोहरू	-2178
ठु	-2179
च्चा	-2180
▁अलग	-2181
▁वीणा	-2182
▁पाउने	-2183
▁भाँडा	-2184
▁उल्लेख	-2185
▁अवस्थित	-2186
नुहुन्थ्यो	-2187
▁पट	-2188
नाको	-2189
▁पन्	-2190
▁बात	-2191
▁पिनको	-2192
▁गर्दैछु	-2193
बद्ध	-2194
म्बई	-2195
स्रो	-2196
▁तामा	-2197
्याङ्क	-2198
▁कोसिस	-2199
▁धेरैवटा	-2200
▁माल	-2201
▁मसँग	-2202
▁पक्ष	-2203
▁पिनकोड	-2204
▁मान्छेको	-2205
रेको	-2206
लीहरू	-2207
▁तातो	-2208
▁चौबिस	-2209
लिम	-2210
▁चाइ	-2211
▁चिसो	-2212
▁मिल्	-2213
▁लागेर	-2214
▁हेर्दा	-2215
भग	-2216
वन	-2217
▁कसैलाई	-2218
र्ती	-2219
▁कृषि	-2220
▁बाइस	-2221
▁रुचि	-2222
▁साहि	-2223
▁हावा	-2224
▁घुम्न	-2225
▁प्रमुख	-2226
कमा	-2227
स्टम	-2228
▁गरिब	-2229
▁मध्य	-2230
▁हेरि	-2231
▁थिइनँ	-2232
▁असुविधा	-2233
▁हुँदाखेरि	-2234
▁पुरु	-2235
▁सक्छन्	-2236
▁तिनीहरूलाई	-2237
टे	-2238
बुङ	-2239
▁पाठ	-2240
▁अचार	-2241
▁मद्द	-2242
▁लाइफ	-2243
▁संसार	-2244
▁हुँदैछ	-2245
कन	-2246
ज्ञा	-2247
प्रो	-2248
्छन्	-2249
▁कुच	-2250
▁लगभग	-2251
जय	-2252
▁जना	-2253
▁नहु	-2254
▁यसै	-2255
▁सेट	-2256
स्थान	-2257
▁जाडो	-2258
▁टिभी	-2259
▁मनोर	-2260
भेट	-2261
▁फरक	-2262
▁ब्ल	-2263
▁अर्थ	-2264
▁बहिनी	-2265
▁किन्नु	-2266
दिनुहोस्	-2267
▁व्यवहार	-2268
▁भन्नुपर्	-2269
लोड	-2270
ाएर	-2271
▁उद	-2272
▁हेर्ने	-2273
न्डर	-2274
▁अप्र	-2275
▁लाउँ	-2276
▁अक्टो	-2277
▁ज्ञान	-2278
▁मद्दत	-2279
▁कुरोहरू	-2280
▁हस्पिटल	-2281
तम	-2282
िटि	-2283
▁नभएर	-2284
▁लाइक	-2285
▁च्यान	-2286
▁पूर्व	-2287
▁राख्ने	-2288
कामा	-2289
▁बारी	-2290
▁मैला	-2291
▁सर्व	-2292
ानब्बे	-2293
▁किनमेल	-2294
▁तिमीले	-2295
नै	-2296
▁घाम	-2297
तीहरू	-2298
▁कुकुर	-2299
▁शता	-2300
▁खोला	-2301
▁भुटान	-2302
▁पानीहरू	-2303
क्षक	-2304
▁टिकट	-2305
▁सुपर	-2306
▁मार्च	-2307
▁आउँदैन	-2308
दाय	-2309
ेकी	-2310
▁जर	-2311
▁बोला	-2312
▁वास्त	-2313
▁त्यहाँदेखिको	-2314
गढ	-2315
सर	-2316
िता	-2317
▁रेस	-2318
क्षिक	-2319
▁दुवै	-2320
▁हिमा	-2321
▁पर्यट	-2322
▁जान्छु	-2323
▁फिर्ता	-2324
फिक	-2325
▁उड	-2326
केको	-2327
▁परेन	-2328
▁छैनन्	-2329
▁पुऱ्य	-2330
▁बुद्धि	-2331
जको	-2332
▁पुन	-2333
राखेको	-2334
▁राख्न	-2335
इस	-2336
र्मा	-2337
▁गुण	-2338
▁डाउन	-2339
▁फाइभ	-2340
▁राजा	-2341
▁स्था	-2342
▁हिसाब	-2343
▁सहायता	-2344
▁उत्पादन	-2345
धु	-2346
नेस	-2347
प्प	-2348
वान	-2349
▁कठ	-2350
▁तब	-2351
ग्रा	-2352
▁नोभ	-2353
▁बार	-2354
▁बिजु	-2355
▁दक्षिण	-2356
▁प्रदर्श	-2357
▁हुनुपर्छ	-2358
▁आइडी	-2359
▁लिनु	-2360
▁ग्राहक	-2361
▁एक्काइस	-2362
पहरू	-2363
स्टा	-2364
▁बित	-2365
▁रेट	-2366
▁पढाइ	-2367
▁तिनवटा	-2368
▁शान्ति	-2369
▁गरिदिनुहोस्	-2370
जग	-2371
अघि	-2372
ँदैछ	-2373
▁जान्न	-2374
▁पर्या	-2375
एल	-2376
ेरो	-2377
▁इन	-2378
▁भवि	-2379
▁गार्ड	-2380
▁प्लेट	-2381
▁भविष्य	-2382
▁मिडिया	-2383
▁खान्छौँ	-2384
यत	-2385
खेर	-2386
र्व	-2387
िएको	-2388
▁हाउ	-2389
▁हिन्दू	-2390
▁शैक्षिक	-2391
▁दार्जिलिङको	-2392
▁ऐ	-2393
ठुलो	-2394
▁उपा	-2395
न्तरण	-2396
श्चित	-2397
▁अङ्ग्रे	-2398
▁भन्नुभयो	-2399
एछ	-2400
▁धान	-2401
नुहोला	-2402
▁बस्नु	-2403
▁उहाँको	-2404
▁दोस्रो	-2405
▁सम्पूर्ण	-2406
▁हेर्दाखेरि	-2407
म्मा	-2408
लिया	-2409
▁हैन	-2410
▁बादमा	-2411
▁अक्टोबर	-2412
▁मार	-2413
▁आसाम	-2414
▁कोभि	-2415
▁माटो	-2416
▁सम्भाव	-2417
िकल	-2418
▁जय	-2419
▁मिस	-2420
▁संर	-2421
▁अनुह	-2422
▁अफिस	-2423
▁बङ्ग	-2424
▁बिग्रि	-2425
ाउनुपर्छ	-2426
▁विद्यालय	-2427
एएन	-2428
▁खाएर	-2429
▁पोर्ट	-2430
▁पकाउनु	-2431
▁टुरिस्ट	-2432
पना	-2433
मार	-2434
▁जिउ	-2435
▁लेन	-2436
▁चाँड	-2437
▁फेला	-2438
▁सानै	-2439
▁तामाङ	-2440
▁भिन्न	-2441
▁गर्नाका	-2442
▁प्रकारका	-2443
▁ब्यालेन्स	-2444
बारी	-2445
स्टिक	-2446
▁गाना	-2447
▁नियम	-2448
▁योगा	-2449
्याक्ट	-2450
▁तापनि	-2451
▁कालेबुङ	-2452
▁ज्याकेट	-2453
▁सामाजिक	-2454
डु	-2455
टीहरू	-2456
▁पाकि	-2457
▁लाइन	-2458
▁सिंह	-2459
▁कसैको	-2460
▁पार्क	-2461
नुपर्यो	-2462
र्मेन्ट	-2463
▁गोर्खा	-2464
▁थुप्रो	-2465
▁डेलिभरी	-2466
▁हाँ	-2467
ल्लाह	-2468
सकेको	-2469
▁एरिया	-2470
▁लेनदेन	-2471
▁प्लान्ट	-2472
▁साहित्य	-2473
▁तपाईँहरू	-2474
णय	-2475
मस	-2476
▁बल	-2477
▁चल्	-2478
▁परा	-2479
▁बसि	-2480
ूर्ति	-2481
▁सन्द	-2482
▁भएपछि	-2483
▁गाह्रो	-2484
▁प्रतियोग	-2485
▁लागिरहेको	-2486
▁सेभ	-2487
डेन्ट	-2488
बिहार	-2489
लिन्छ	-2490
▁फ्रा	-2491
▁मुम्बई	-2492
▁समाजमा	-2493
▁सुनेको	-2494
फुल	-2495
▁नद	-2496
युक्त	-2497
▁पालन	-2498
▁गर्यो	-2499
▁डिस्ट	-2500
▁पुरुष	-2501
▁अनुहार	-2502
▁मेरोमा	-2503
▁जान्छौँ	-2504
▁पाउँछौँ	-2505
▁हामीहरू	-2506
न्च	-2507
दुवा	-2508
ाएको	-2509
▁अप्	-2510
ृत्यु	-2511
▁उपचार	-2512
▁दिनको	-2513
▁मृत्यु	-2514
▁हुन्छु	-2515
▁अर्ग्या	-2516
ाले	-2517
▁देव	-2518
▁क्रि	-2519
▁जसरी	-2520
▁पढेर	-2521
▁गाडीमा	-2522
▁प्राइभेट	-2523
गि	-2524
▁दश	-2525
र्फत	-2526
प्रति	-2527
▁कहीँ	-2528
▁बाँच	-2529
▁स्वी	-2530
▁गरिरह	-2531
▁टेक्नो	-2532
▁लुगाहरू	-2533
▁गभर्मेन्ट	-2534
गी	-2535
ष्ठ	-2536
▁ग्	-2537
रीको	-2538
वासी	-2539
▁पशु	-2540
▁साँ	-2541
तु	-2542
▁ट्रे	-2543
▁सुनि	-2544
▁अदुवा	-2545
▁पढेको	-2546
▁दिन्छु	-2547
▁गर्नुको	-2548
▁भइसक्यो	-2549
तृ	-2550
जिङ	-2551
धारण	-2552
▁इतिहा	-2553
▁बस्ती	-2554
▁कार्या	-2555
▁सूचीमा	-2556
▁निर्माण	-2557
▁नोभेम्बर	-2558
िनी	-2559
त्री	-2560
पूर्व	-2561
र्मिक	-2562
▁स्वत	-2563
▁पकाएर	-2564
▁सबैको	-2565
▁तिनीहरूको	-2566
फे	-2567
ीति	-2568
▁काँ	-2569
▁जोड	-2570
▁नाइ	-2571
प्रिय	-2572
▁ठुल्	-2573
▁राति	-2574
▁स्टेट	-2575
▁हल्का	-2576
▁संस्था	-2577
▁सोचेको	-2578
िति	-2579
▁बता	-2580
▁लन्ड	-2581
▁पढ्ने	-2582
▁फोनमा	-2583
▁बिचमा	-2584
▁विवाह	-2585
▁समावेश	-2586
▁गर्नुभयो	-2587
जाम	-2588
साथ	-2589
▁आगो	-2590
▁लाभ	-2591
▁साल	-2592
सक्छौँ	-2593
▁स्थान	-2594
▁पुरस्कार	-2595
ममा	-2596
▁गि	-2597
▁अध्य	-2598
वृत्ति	-2599
▁क्रिम	-2600
▁गर्दछु	-2601
▁निर्णय	-2602
▁बनाउँछु	-2603
▁मनोरञ्जन	-2604
▁त्यतिबेला	-2605
▁प्रोग्राम	-2606
▁उय	-2607
्याँ	-2608
्यारो	-2609
▁मिनट	-2610
▁रोटी	-2611
▁पुलिस	-2612
▁फ्रेस	-2613
▁सस्तो	-2614
▁गरेपछि	-2615
▁देख्दा	-2616
▁मज्जाले	-2617
लस	-2618
िनय	-2619
▁कल्	-2620
▁वान	-2621
▁कोठा	-2622
▁पठाइदि	-2623
▁वास्तव	-2624
▁किलोमिट	-2625
▁कुचबिहार	-2626
▁टेक्नोलो	-2627
मको	-2628
रेर	-2629
ेरिस	-2630
▁कतै	-2631
▁जित	-2632
▁थप्	-2633
▁पौडी	-2634
▁सुँग	-2635
▁दोकानमा	-2636
▁पर्थ्यो	-2637
मन	-2638
ैँचा	-2639
▁एकै	-2640
▁किन्	-2641
▁लागेन	-2642
▁तिम्रो	-2643
▁धार्मिक	-2644
▁कार्यक्रमहरू	-2645
कृ	-2646
ियल	-2647
▁कलक	-2648
▁ट्व	-2649
▁दिए	-2650
▁मणि	-2651
▁हरि	-2652
▁आर्थ	-2653
▁गोरु	-2654
▁वाता	-2655
▁कार्ट	-2656
▁खेल्न	-2657
फर	-2658
▁ऋण	-2659
▁खालि	-2660
▁त्रि	-2661
▁सङ्घ	-2662
▁अमेरि	-2663
▁सामना	-2664
▁डाउनलोड	-2665
▁नप	-2666
जेन्स	-2667
▁चार्ज	-2668
▁मिक्स	-2669
▁सुँगुर	-2670
▁गरिरहेका	-2671
▁साथीहरूसँग	-2672
षण	-2673
▁एज	-2674
▁गे	-2675
दैछु	-2676
▁बिर	-2677
▁बहुत	-2678
▁आर्थिक	-2679
▁प्रतिश	-2680
▁सल्लाह	-2681
▁हेर्छु	-2682
▁लोकप्रिय	-2683
▁तिनीहरूले	-2684
▁हेर्नुहोस्	-2685
म्स	-2686
ङ्गल	-2687
ताले	-2688
▁जगा	-2689
▁ठुला	-2690
▁यसका	-2691
▁शेखर	-2692
▁साना	-2693
▁काटेर	-2694
▁हेल्प	-2695
▁भाषालाई	-2696
▁खेतीपाती	-2697
जर	-2698
धन	-2699
भल	-2700
म्भ	-2701
ेकै	-2702
▁आर	-2703
▁एप	-2704
ञ्चा	-2705
ाउको	-2706
▁फोर	-2707
▁जान्	-2708
▁प्रक्रिया	-2709
ब्लम	-2710
काहरू	-2711
▁आर्ट	-2712
▁चेन्न	-2713
▁पर्दाखेरि	-2714
स्टर	-2715
िनमा	-2716
▁आधा	-2717
▁फर्क	-2718
िसकेको	-2719
▁पाउनु	-2720
▁रहेका	-2721
▁सट्टा	-2722
▁अन्तर्	-2723
▁कलकत्ता	-2724
▁ई	-2725
▁गुज	-2726
▁मिट	-2727
▁अत्य	-2728
▁केटी	-2729
▁विदेश	-2730
▁यहाँबाट	-2731
▁नेपालीमा	-2732
फल	-2733
भो	-2734
कारण	-2735
▁किने	-2736
▁खाले	-2737
▁सेलरो	-2738
▁जिल्लाको	-2739
▁नानीहरूको	-2740
▁कालिम्पोङमा	-2741
कारा	-2742
जस्तो	-2743
▁कुद्	-2744
▁गरौँ	-2745
▁मानि	-2746
▁आवेदन	-2747
▁चलाउनु	-2748
▁स्थाना	-2749
झा	-2750
▁निराश	-2751
▁बच्चा	-2752
▁शुल्क	-2753
सिया	-2754
हाल्	-2755
▁दिव	-2756
▁सुख	-2757
▁मनमा	-2758
▁छात्र	-2759
▁प्रणा	-2760
▁चिन्ता	-2761
▁चेन्नई	-2762
▁ट्याक्स	-2763
▁ब्रान्ड	-2764
▁ठुल्ठुलो	-2765
▁मान्छेहरूलाई	-2766
ोल	-2767
इन्	-2768
▁गौ	-2769
र्का	-2770
▁गएँ	-2771
▁दुईजना	-2772
▁प्रस्तु	-2773
▁वातावरण	-2774
▁प्रमाणपत्र	-2775
ेत	-2776
लिप	-2777
होर	-2778
▁आप	-2779
कृति	-2780
ोस्ट	-2781
▁नेट	-2782
▁मेड	-2783
▁टोली	-2784
▁प्रथम	-2785
▁राजनी	-2786
▁बगैँचा	-2787
कृत	-2788
ेबल	-2789
▁बै	-2790
▁दियो	-2791
▁बुढा	-2792
▁सुधार	-2793
▁भुक्तान	-2794
▁चलिरहेको	-2795
चोटि	-2796
▁परी	-2797
फास्ट	-2798
ऱ्यौँ	-2799
▁स्टो	-2800
विद्या	-2801
▁चालिस	-2802
▁विभाग	-2803
▁हेल्थ	-2804
▁चलाउने	-2805
▁व्यापार	-2806
▁प्लास्टिक	-2807
▁अर्ग्यानिक	-2808
▁मानिसहरूको	-2809
ंसा	-2810
▁सत	-2811
िटिस	-2812
▁फ्र	-2813
▁आकर्ष	-2814
▁दृश्य	-2815
▁मणिपुर	-2816
दय	-2817
बस	-2818
तिस	-2819
र्प	-2820
▁सद	-2821
▁वाट	-2822
▁लाभा	-2823
त्तिकै	-2824
▁भइसकेको	-2825
▁आउँदाखेरि	-2826
तया	-2827
साङ	-2828
पन्न	-2829
▁खास	-2830
▁टिम	-2831
▁कालो	-2832
▁पढ्न	-2833
▁गाईको	-2834
▁लन्डन	-2835
▁अधिकार	-2836
लत	-2837
ेप	-2838
▁क्रम	-2839
▁काठमा	-2840
▁काममा	-2841
▁किन्न	-2842
▁ल्याएको	-2843
▁सुरक्षा	-2844
लर	-2845
टिङ	-2846
ाइड	-2847
ामि	-2848
▁पटक	-2849
केपछि	-2850
▁बाजे	-2851
▁छोडेर	-2852
▁फ्याम	-2853
▁मालदा	-2854
▁ट्राफिक	-2855
▁प्रतिशत	-2856
▁उमा	-2857
▁हालै	-2858
▁पेरिस	-2859
▁फ्याँ	-2860
▁सकेको	-2861
▁बनाइदि	-2862
विद्यालय	-2863
▁किलोमिटर	-2864
जित	-2865
▁खुव	-2866
▁जारी	-2867
▁ताजा	-2868
▁पाहु	-2869
▁कोभिड	-2870
्रान्ति	-2871
▁इन्डियन	-2872
▁राज्यमा	-2873
डौँ	-2874
लेँ	-2875
सनल	-2876
▁नम	-2877
▁वन	-2878
स्टे	-2879
▁एकछ	-2880
▁इङ्ग	-2881
▁अभिनय	-2882
▁सिक्नु	-2883
▁सेवाहरू	-2884
▁बिस्तारै	-2885
▁सूचीबद्ध	-2886
▁अङ्ग्रेजी	-2887
ते	-2888
▁टू	-2889
▁नह	-2890
द्धा	-2891
र्दा	-2892
लबाट	-2893
सक्ने	-2894
स्ताव	-2895
▁लिने	-2896
▁जरुरी	-2897
▁बोल्ने	-2898
▁क्यान्स	-2899
▁तरिकाले	-2900
▁अन्तखेरि	-2901
▁जग्गाहरू	-2902
जनक	-2903
▁छि	-2904
▁इले	-2905
▁रुच	-2906
▁युपि	-2907
▁टेस्ट	-2908
▁सक्नु	-2909
▁उयोहरू	-2910
▁ढुङ्गा	-2911
▁प्रस्ताव	-2912
▁तपाईँहरूलाई	-2913
टिभ	-2914
वाज	-2915
हारा	-2916
▁अफ्	-2917
▁छब्	-2918
▁दर्श	-2919
▁फ्रि	-2920
▁चाइना	-2921
▁गाडीहरू	-2922
▁कार्यालय	-2923
उँछ	-2924
चना	-2925
नाथ	-2926
भयो	-2927
स्व	-2928
▁लड	-2929
▁तमि	-2930
▁थाह	-2931
▁मूल	-2932
▁ग्या	-2933
▁मुस्	-2934
▁देशको	-2935
▁सदस्य	-2936
▁पर्यटक	-2937
▁ठाउँहरू	-2938
▁पाकिस्तान	-2939
पिङ	-2940
रीमा	-2941
▁केवल	-2942
▁क्लब	-2943
▁सेप्ट	-2944
▁अलिपुर	-2945
कुरा	-2946
त्सा	-2947
वान्	-2948
हाल्यो	-2949
▁प्रवि	-2950
▁प्रेस	-2951
▁छब्बिस	-2952
▁त्योहरू	-2953
▁ग्राउन्ड	-2954
▁दिनुपर्छ	-2955
▁गर्नुभएको	-2956
कर	-2957
रोध	-2958
निया	-2959
प्चा	-2960
▁उदा	-2961
▁चलाइ	-2962
▁चामल	-2963
▁किसान	-2964
▁मान्य	-2965
▁सामग्री	-2966
▁भन्नुपर्दा	-2967
कृष्ट	-2968
सिद्ध	-2969
▁आउँदा	-2970
▁कतिले	-2971
▁पेमेन्ट	-2972
▁सेप्टेम्बर	-2973
▁हँ	-2974
क्ने	-2975
र्सि	-2976
िन्छ	-2977
▁गति	-2978
▁फिल	-2979
▁थिइन्	-2980
▁होटेल	-2981
ञ्ज	-2982
▁बद	-2983
धानी	-2984
▁चल्छ	-2985
▁नाइन	-2986
▁मसिन	-2987
▁समान	-2988
राष्ट्र	-2989
▁मनाउने	-2990
▁सिकेको	-2991
▁हुन्छौँ	-2992
▁काठमाडौँ	-2993
▁त्यतिखेर	-2994
▁सम्बन्धित	-2995
▁प्रतियोगिता	-2996
पट	-2997
मल	-2998
सव	-2999
▁आग	-3000
▁दी	-3001
▁भै	-3002
न्तर	-3003
▁कुल	-3004
▁किरा	-3005
▁प्रि	-3006
▁सिटी	-3007
▁क्याब	-3008
▁गरियो	-3009
▁बर्खा	-3010
▁शुद्ध	-3011
▁दुर्गा	-3012
इँ	-3013
मेट	-3014
▁मर	-3015
ब्रु	-3016
लियो	-3017
▁छिम	-3018
▁झार	-3019
▁बिज	-3020
▁कमान	-3021
▁स्टा	-3022
▁पेन्ट	-3023
▁प्रब्लम	-3024
शि	-3025
मता	-3026
▁अह	-3027
न्सन	-3028
▁पढ्	-3029
▁पैँ	-3030
▁भेज	-3031
न्यास	-3032
▁तमिल	-3033
▁बिजुली	-3034
▁लेप्चा	-3035
कारात्मक	-3036
चल	-3037
फ्	-3038
पेर	-3039
बिच	-3040
स्ती	-3041
▁तयार	-3042
▁लोकल	-3043
▁अगस्ट	-3044
▁पत्ता	-3045
▁पछिल्लो	-3046
▁साथीभाइ	-3047
▁हाम्रोमा	-3048
▁बिरुवाहरू	-3049
्प	-3050
द्र	-3051
क्का	-3052
▁नदी	-3053
▁घाँस	-3054
▁खेल्छ	-3055
▁सकिनँ	-3056
▁स्ट्र	-3057
▁पानीमा	-3058
▁फेसबुक	-3059
▁विकल्प	-3060
▁उपन्यास	-3061
▁औष	-3062
ग्ने	-3063
ङ्का	-3064
▁दाना	-3065
▁पुग्न	-3066
▁पुग्नु	-3067
▁बोलेको	-3068
▁गर्थ्यो	-3069
▁दबाईहरू	-3070
▁सङ्ख्या	-3071
▁सबभन्दा	-3072
▁पोर्टलमा	-3073
▁प्रसिद्ध	-3074
▁थप्नुहोस्	-3075
लिन	-3076
श्व	-3077
▁दर	-3078
▁दै	-3079
म्बा	-3080
रिक्त	-3081
▁च्या	-3082
▁लगइन	-3083
▁वहाँ	-3084
▁देशमा	-3085
▁मैदान	-3086
▁हातले	-3087
▁लक्ष्मी	-3088
▁अतिरिक्त	-3089
पति	-3090
सीको	-3091
्योग	-3092
▁गल्	-3093
▁अभिने	-3094
मन्त्री	-3095
▁हेरेको	-3096
▁सेलरोटी	-3097
▁उत्कृष्ट	-3098
▁स्थानान्तरण	-3099
यल	-3100
गडा	-3101
िदि	-3102
▁एच	-3103
▁तो	-3104
▁देउ	-3105
▁पिस	-3106
कर्ता	-3107
▁छक्क	-3108
▁तेइस	-3109
▁थ्री	-3110
▁याता	-3111
पूर्वक	-3112
▁घरहरू	-3113
▁पन्जा	-3114
▁प्रश्न	-3115
▁समुदाय	-3116
ँदो	-3117
काल	-3118
ङ्ख	-3119
▁चेक	-3120
▁निर	-3121
▁बाल	-3122
▁सडक	-3123
्युसन	-3124
विस्ता	-3125
▁चाँडै	-3126
▁फर्कि	-3127
▁मजाको	-3128
▁शक्ति	-3129
▁सिक्स	-3130
▁डाक्टर	-3131
▁बाटोमा	-3132
मे	-3133
▁रू	-3134
पर्छ	-3135
लिका	-3136
▁आएन	-3137
▁अभाव	-3138
▁भ्रमण	-3139
▁राज्यको	-3140
▁सुपरफास्ट	-3141
साद	-3142
▁गए	-3143
▁आजकल	-3144
▁कठिन	-3145
▁दादा	-3146
▁मिठा	-3147
▁स्रो	-3148
▁गुजरा	-3149
▁प्रशि	-3150
▁विवरण	-3151
▁साथमा	-3152
▁स्कुलको	-3153
क्सन	-3154
म्बु	-3155
▁पाहाड	-3156
▁सेभेन	-3157
▁हातमा	-3158
▁चुनौती	-3159
▁पकाएको	-3160
▁पाराले	-3161
▁याताया	-3162
चु	-3163
एफओ	-3164
ताउ	-3165
रिङ	-3166
▁ओह	-3167
▁अन्	-3168
▁रिज	-3169
▁रोड	-3170
धुनिक	-3171
हत्तर	-3172
▁युनि	-3173
▁हालि	-3174
ठ्यारो	-3175
▁महारा	-3176
▁मार्क	-3177
▁सुरक्षित	-3178
कित	-3179
विक	-3180
न्ती	-3181
▁आउन	-3182
▁कन्	-3183
▁उनका	-3184
▁प्लस	-3185
▁सत्त	-3186
▁सम्म	-3187
▁आमाले	-3188
▁घुम्ने	-3189
▁पर्याप्त	-3190
ट्ठ	-3191
भिस	-3192
▁फै	-3193
▁सी	-3194
सहित	-3195
ीलाई	-3196
▁दाउ	-3197
दनहरू	-3198
▁कपाल	-3199
▁दिउँ	-3200
स्थिति	-3201
▁कविता	-3202
▁बनायो	-3203
▁प्रबन्ध	-3204
▁होमस्टे	-3205
▁प्रदर्शन	-3206
▁लाग्थ्यो	-3207
ारो	-3208
्रै	-3209
▁खर	-3210
्दैन	-3211
▁इला	-3212
▁बनाइ	-3213
▁यहीँ	-3214
▁सेके	-3215
▁छिट्ट	-3216
▁लगाउन	-3217
▁सहरमा	-3218
▁टाइपको	-3219
▁थाल्यो	-3220
▁मन्त्र	-3221
▁आइरहेको	-3222
▁गर्दछौँ	-3223
▁पैसाहरू	-3224
▁जानुपर्छ	-3225
▁समस्याहरू	-3226
घाट	-3227
कियो	-3228
ग्नु	-3229
▁असर	-3230
▁करा	-3231
▁खाल	-3232
▁भरि	-3233
▁सास	-3234
कार्ट	-3235
▁कोदो	-3236
▁घटना	-3237
▁फ्री	-3238
▁मनपर	-3239
ीहरूमा	-3240
▁फुलको	-3241
▁राख्छ	-3242
▁आउँछन्	-3243
▁अमेरिका	-3244
▁गुन्द्र	-3245
ढे	-3246
लाग	-3247
▁खै	-3248
निर्	-3249
ेन्ज	-3250
्रिक	-3251
▁कसो	-3252
▁पस्	-3253
▁शिव	-3254
▁नागा	-3255
▁निक्	-3256
▁रातो	-3257
▁सँगै	-3258
▁संस्क	-3259
▁अरूलाई	-3260
▁भर्खरै	-3261
▁योगदान	-3262
▁रोपेको	-3263
▁वर्षको	-3264
▁मान्यता	-3265
▁सेकेन्ड	-3266
जसो	-3267
न्सा	-3268
▁सिट	-3269
बाहेक	-3270
▁कन्ड	-3271
▁पायो	-3272
बिस्ता	-3273
▁एक्लै	-3274
▁गरिने	-3275
▁बुद्ध	-3276
▁बोकेर	-3277
▁यत्ति	-3278
▁दिँदैन	-3279
▁बङ्गला	-3280
▁रोप्ने	-3281
▁ल्याउनु	-3282
▁टेक्नोलोजी	-3283
गै	-3284
नँ	-3285
▁बट	-3286
ऱ्या	-3287
लिएको	-3288
ेक्षा	-3289
ेन्टी	-3290
▁आत्म	-3291
▁जमिन	-3292
▁परेर	-3293
▁यताउ	-3294
▁रङ्ग	-3295
▁एकछिन	-3296
▁युद्ध	-3297
▁लाउनु	-3298
▁वर्षा	-3299
▁वालेट	-3300
▁प्रवेश	-3301
▁युपिआई	-3302
▁हिसाबले	-3303
▁सुविधाहरू	-3304
▁सन	-3305
ब्दी	-3306
र्जा	-3307
▁नदि	-3308
▁मेट	-3309
▁वाइ	-3310
▁गुगल	-3311
▁चाहे	-3312
▁दिवा	-3313
▁व्याव	-3314
▁कुराको	-3315
▁गर्दैछ	-3316
ह्	-3317
नीय	-3318
बस्	-3319
ल्ल	-3320
▁उम	-3321
▁इपि	-3322
▁केर	-3323
▁बाउ	-3324
▁मसा	-3325
▁मोड	-3326
जेक्ट	-3327
्रिक्ट	-3328
▁इत्या	-3329
▁देख्छ	-3330
▁नब्बे	-3331
▁फ्लिप	-3332
▁बस्तीमा	-3333
▁इन्टरनेट	-3334
▁प्रभावित	-3335
▁वस्तुहरू	-3336
▁सम्भावना	-3337
▁पुस्तकहरू	-3338
काउ	-3339
▁गण	-3340
▁तँ	-3341
▁पच	-3342
▁जाम	-3343
▁मनी	-3344
▁चिनि	-3345
▁जम्म	-3346
▁बाँध	-3347
▁उहिले	-3348
▁इतिहास	-3349
▁इन्स्ट	-3350
▁भगवान्	-3351
▁भाषाहरू	-3352
राष्ट्रिय	-3353
▁गुन्द्रुक	-3354
हरण	-3355
ट्ठी	-3356
▁बेल	-3357
▁खोल्	-3358
▁बस्छ	-3359
▁विजय	-3360
▁गाउँघ	-3361
▁गर्दछन्	-3362
▁पहिल्यै	-3363
▁शताब्दी	-3364
▁संरक्षण	-3365
▁तपाईँसँग	-3366
यार	-3367
सब्	-3368
थमिक	-3369
▁अङ्क	-3370
▁आकाश	-3371
▁अरूको	-3372
▁लिमिट	-3373
▁दृष्टि	-3374
▁इत्यादि	-3375
▁नजिकैको	-3376
▁प्राथमिक	-3377
▁स्कुलहरू	-3378
▁छात्रवृत्ति	-3379
िटल	-3380
▁पी	-3381
▁भर	-3382
इन्ट	-3383
क्नु	-3384
र्जी	-3385
▁नुन	-3386
▁भिड	-3387
रुद्ध	-3388
▁रेसि	-3389
▁इपिएफओ	-3390
▁नाइन्ट	-3391
▁बङ्गालमा	-3392
महरू	-3393
▁अफर	-3394
▁कोइ	-3395
▁घिन	-3396
▁जात	-3397
ब्रुअ	-3398
सक्छु	-3399
▁हिउँ	-3400
▁बत्ती	-3401
▁आधुनिक	-3402
▁खानाको	-3403
▁सागसब्	-3404
▁कम्पनीको	-3405
▁दोकानहरू	-3406
यण	-3407
न्थ	-3408
▁कौ	-3409
▁हृ	-3410
▁उद्	-3411
▁दुब	-3412
▁नजा	-3413
▁झगडा	-3414
▁टर्म	-3415
▁दिवस	-3416
▁वर्त	-3417
▁सिलि	-3418
▁कृष्ण	-3419
▁स्वाद	-3420
भ्याक्स	-3421
▁फ्यामि	-3422
▁भारतका	-3423
▁कुरालाई	-3424
▁परिवारमा	-3425
ज्य	-3426
लोर	-3427
▁कट	-3428
भएको	-3429
▁चाउ	-3430
▁बसो	-3431
▁बाद	-3432
▁बिल	-3433
सँगले	-3434
▁नर्स	-3435
▁रनिङ	-3436
▁लामा	-3437
▁स्टु	-3438
▁आउँदो	-3439
▁बुझ्न	-3440
▁कुर्ती	-3441
▁हाल्नु	-3442
▁गर्नुहु	-3443
▁बाहिरको	-3444
▁स्पोर्ट	-3445
▁नेपालीको	-3446
▁पठाइदिनु	-3447
▁भन्नुहोस्	-3448
▁पठाउनुहोस्	-3449
▁फ्लिपकार्ट	-3450
▁राख्नुपर्छ	-3451
▁विश्वविद्यालय	-3452
एच	-3453
फर्म	-3454
वारी	-3455
▁इङ्	-3456
▁केट	-3457
▁गुमा	-3458
▁बिहे	-3459
▁हालको	-3460
▁कुराले	-3461
▁जीवनको	-3462
▁पारेको	-3463
▁साइन्स	-3464
▁सकिँदैन	-3465
▁क्यान्सल	-3466
▁क्षेत्रको	-3467
जू	-3468
तः	-3469
केट	-3470
भिङ	-3471
लेन	-3472
▁घि	-3473
▁पह	-3474
▁मद	-3475
▁विद	-3476
▁सहज	-3477
▁घरेलु	-3478
▁ब्याग	-3479
▁रेलवे	-3480
▁गर्थेँ	-3481
▁डेलिभर	-3482
▁रोप्नु	-3483
▁शिक्षक	-3484
▁त्यसबाट	-3485
▁उहाँहरूलाई	-3486
क्र	-3487
▁जग	-3488
▁झु	-3489
जगार	-3490
▁एपि	-3491
▁नोक	-3492
▁पहा	-3493
▁बाग	-3494
▁मेल	-3495
▁हरे	-3496
▁अभिय	-3497
▁अर्ड	-3498
▁लास्ट	-3499
▁अत्यन्त	-3500
▁महिनाको	-3501
▁हिँड्नु	-3502
▁हटाउनुहोस्	-3503
▁डिस्ट्रिक्ट	-3504
भु	-3505
▁पद	-3506
▁अला	-3507
▁उभि	-3508
▁जोग	-3509
▁बने	-3510
▁बर्	-3511
▁अवधि	-3512
▁आएका	-3513
▁कसले	-3514
▁गर्व	-3515
▁जिरो	-3516
▁डेली	-3517
▁जहिले	-3518
▁बोल्छ	-3519
▁शर्मा	-3520
▁एक्सपि	-3521
▁एजेन्स	-3522
▁पुस्ता	-3523
▁वर्तमान	-3524
▁कम्प्युट	-3525
▁खोज्नुहोस्	-3526
▁अलिपुरद्वार	-3527
खन	-3528
द्दा	-3529
म्मे	-3530
वानी	-3531
स्को	-3532
▁खाली	-3533
▁बढेर	-3534
▁मेला	-3535
▁राइस	-3536
▁सेतो	-3537
▁भइहाल्छ	-3538
▁मनपऱ्यो	-3539
▁वास्तवमा	-3540
कले	-3541
ियर	-3542
ब्बा	-3543
▁बढ्	-3544
▁हरा	-3545
त्तिस	-3546
▁ग्रु	-3547
▁मिति	-3548
न्द्रा	-3549
र्टेबल	-3550
▁उत्सा	-3551
▁गुरुङ	-3552
▁फलफुल	-3553
▁बसोबा	-3554
▁यत्रो	-3555
▁खेलहरू	-3556
▁गाडीको	-3557
▁भान्सा	-3558
▁मार्फत	-3559
▁पूजाहरू	-3560
▁प्रोडक्ट	-3561
▁व्यक्तिगत	-3562
पात	-3563
▁अल्	-3564
▁डाइ	-3565
सक्यो	-3566
▁अन्ध	-3567
▁आजको	-3568
▁मसला	-3569
▁खोज्न	-3570
▁दाउरा	-3571
▁बाँकी	-3572
▁गुणस्त	-3573
▁दिउँसो	-3574
▁पाउँदा	-3575
▁लेख्नु	-3576
▁समाधान	-3577
▁अपेक्षा	-3578
▁अस्पताल	-3579
▁मुस्लिम	-3580
ऊँ	-3581
क्छ	-3582
िका	-3583
▁की	-3584
▁पृ	-3585
▁सज	-3586
चारी	-3587
▁अवस	-3588
चरहरू	-3589
▁अनुस	-3590
▁उठेर	-3591
▁खोलेर	-3592
▁ग्राम	-3593
ब्रुअरी	-3594
▁खेलेको	-3595
▁त्यस्ता	-3596
▁बङ्गाली	-3597
▁मार्केट	-3598
▁ल्याइदि	-3599
सीमा	-3600
ुट्ट	-3601
▁घुम	-3602
▁डल्	-3603
▁भलि	-3604
तालाई	-3605
नीहरू	-3606
▁खायो	-3607
▁लागु	-3608
▁खरसाङ	-3609
▁बिर्स	-3610
▁बोर्ड	-3611
▁रहन्छ	-3612
▁सुन्न	-3613
▁सुन्नु	-3614
▁हेऱ्यो	-3615
▁निकालेर	-3616
▁ब्रिटिस	-3617
▁संस्थान	-3618
▁व्यावसाय	-3619
हर	-3620
ाई	-3621
मति	-3622
▁आई	-3623
तामा	-3624
▁अटो	-3625
▁एआइ	-3626
द्यपि	-3627
ल्डिङ	-3628
▁जित्	-3629
▁पिक्	-3630
▁फ्या	-3631
▁बगान	-3632
▁साइज	-3633
यन्त्र	-3634
▁खालके	-3635
▁इलेक्ट	-3636
▁च्यानल	-3637
▁टर्मिन	-3638
▁यद्यपि	-3639
▁वर्षमा	-3640
▁शब्दहरू	-3641
▁प्राकृति	-3642
▁साथीहरूले	-3643
िकन	-3644
▁कडा	-3645
▁गोवा	-3646
▁बिना	-3647
▁सकेन	-3648
▁बाहेक	-3649
▁युएएन	-3650
▁स्पेस	-3651
▁अन्त्य	-3652
▁उदाहरण	-3653
▁कलाकार	-3654
▁देख्नु	-3655
▁राम्रा	-3656
▁दिन्छौँ	-3657
▁बनाउँदा	-3658
▁ट्याक्सी	-3659
▁डिसेम्बर	-3660
▁अप्ठ्यारो	-3661
लिज	-3662
▁आए	-3663
▁चै	-3664
▁थोर	-3665
▁अम्ब	-3666
▁उचित	-3667
▁कोरो	-3668
▁दुबई	-3669
सम्मको	-3670
▁विस्त	-3671
▁स्टोर	-3672
▁आक्रमण	-3673
▁पासबुक	-3674
▁प्रकाश	-3675
▁साथसाथ	-3676
▁गइरहेको	-3677
▁त्यतिकै	-3678
▁अवस्थामा	-3679
▁प्राकृतिक	-3680
सल	-3681
टिल	-3682
ेटिभ	-3683
▁दिस	-3684
▁बजे	-3685
▁पर्स	-3686
▁हृदय	-3687
▁कस्टम	-3688
▁चेन्ज	-3689
▁जम्मा	-3690
▁टाउको	-3691
▁प्याज	-3692
▁प्रशा	-3693
▁फोहोर	-3694
▁ब्याट	-3695
▁कलरहरू	-3696
▁मिलाएर	-3697
▁रेडियो	-3698
▁ल्यापट	-3699
▁क्यामेरा	-3700
▁पर्यटकहरू	-3701
▁बुद्धिस्ट	-3702
▁साथीहरूलाई	-3703
तन	-3704
मित	-3705
लीन	-3706
▁आय	-3707
धिका	-3708
▁गलत	-3709
▁पिक	-3710
▁हाल	-3711
किएको	-3712
बसाइट	-3713
▁डक्ट	-3714
▁मानव	-3715
▁देखेँ	-3716
▁चन्द्र	-3717
▁साधारण	-3718
▁वेबसाइट	-3719
▁हामीसँग	-3720
▁परिरहेको	-3721
विश	-3722
सुन	-3723
लाइट	-3724
हारी	-3725
▁टिभ	-3726
▁हेड	-3727
▁अलग्	-3728
▁वर्ण	-3729
▁घरबाट	-3730
▁ड्रेस	-3731
▁मध्ये	-3732
▁उन्नति	-3733
▁ट्रान्स	-3734
▁लिमिटेड	-3735
▁फ्यामिली	-3736
अप	-3737
जार	-3738
पान	-3739
फोन	-3740
हुँ	-3741
▁एप्	-3742
▁कमी	-3743
▁क्य	-3744
▁इमेल	-3745
▁उपाय	-3746
▁बर्थ	-3747
▁कक्षा	-3748
▁खाएको	-3749
▁जत्ति	-3750
▁उद्योग	-3751
▁पार्टी	-3752
▁सम्मान	-3753
▁निश्चित	-3754
राज	-3755
सले	-3756
ध्या	-3757
सिटि	-3758
▁परे	-3759
▁कानु	-3760
▁केजी	-3761
▁ट्या	-3762
▁पारि	-3763
▁गल्ती	-3764
▁पारेर	-3765
▁पार्न	-3766
▁मार्ग	-3767
▁गर्नको	-3768
▁चाउमिन	-3769
▁चाहियो	-3770
▁राख्छु	-3771
▁लगाउँछ	-3772
▁उहाँहरू	-3773
▁प्रणाली	-3774
▁मन्त्री	-3775
▁खानेकुरा	-3776
▁सक्दैनौँ	-3777
▁स्वतन्त्र	-3778
गढी	-3779
जोर	-3780
फाइ	-3781
▁ठा	-3782
▁मज	-3783
▁लै	-3784
क्सि	-3785
ताका	-3786
▁कोड	-3787
▁डोज	-3788
▁रात	-3789
▁क्लि	-3790
▁दैनिक	-3791
▁फर्का	-3792
▁सिकेँ	-3793
▁अलग्गै	-3794
▁चराहरू	-3795
▁पकाउने	-3796
▁पुष्टि	-3797
▁मूर्ति	-3798
▁लक्ष्य	-3799
▁सिस्टम	-3800
▁दिसम्बर	-3801
▁देखाएको	-3802
▁उहाँहरूको	-3803
▁कुराहरूमा	-3804
▁ब्याङ्कमा	-3805
वाल	-3806
▁पल	-3807
खण्ड	-3808
दियो	-3809
नेरि	-3810
सिंह	-3811
▁वाह	-3812
योर्क	-3813
▁आराम	-3814
▁पेसा	-3815
▁बस्न	-3816
▁श्रे	-3817
▁इङ्ग्	-3818
▁कल्चर	-3819
▁बिग्र	-3820
▁हटाउन	-3821
▁अभ्यास	-3822
▁क्रममा	-3823
▁खानामा	-3824
▁टोकियो	-3825
▁मनाइन्छ	-3826
▁सामान्यतया	-3827
▁हुनुहुन्थ्यो	-3828
वती	-3829
▁शृ	-3830
र्चा	-3831
ाइने	-3832
▁कुट	-3833
▁खोइ	-3834
▁घिउ	-3835
▁दौड	-3836
▁गोबर	-3837
▁छुरी	-3838
▁पनिर	-3839
▁ट्राई	-3840
िसकेपछि	-3841
▁नानीको	-3842
▁भनेपछि	-3843
▁मेडिकल	-3844
▁एआइसिटि	-3845
▁स्थापना	-3846
▁नागाल्यान्ड	-3847
दुर	-3848
पिन	-3849
ाइँ	-3850
▁लक	-3851
▁चलन	-3852
▁मेस	-3853
▁सुझ	-3854
न्तित	-3855
मार्ट	-3856
▁न्या	-3857
▁मौका	-3858
रियन्स	-3859
▁क्षति	-3860
▁तारिक	-3861
▁पुगेको	-3862
▁भाषाले	-3863
▁हेर्दै	-3864
▁उहाँलाई	-3865
▁चिन्तित	-3866
▁तपाईँका	-3867
▁ब्ल्याक	-3868
▁सिकाउनु	-3869
▁न्युयोर्क	-3870
▁महाराष्ट्र	-3871
डू	-3872
धै	-3873
फि	-3874
ृह	-3875
रोह	-3876
ियम	-3877
जाति	-3878
स्ते	-3879
▁हाई	-3880
तालिस	-3881
▁अपरा	-3882
▁गयौँ	-3883
▁थप्न	-3884
▁परिण	-3885
▁आफन्त	-3886
▁फोनको	-3887
▁मलहरू	-3888
▁समर्थ	-3889
▁पन्जाब	-3890
▁मनाउँछ	-3891
▁शेखरले	-3892
▁स्वस्थ	-3893
▁परीक्षा	-3894
ओस्	-3895
चाह	-3896
ुले	-3897
वाला	-3898
हिने	-3899
▁भाष	-3900
्सहरू	-3901
▁गुवा	-3902
▁ड्रि	-3903
▁देवी	-3904
▁साइड	-3905
▁खासमा	-3906
▁बनेको	-3907
▁मिठाई	-3908
▁सक्दो	-3909
▁गुजरात	-3910
▁चाहिने	-3911
▁टिस्टा	-3912
▁मात्रा	-3913
▁हिमालय	-3914
▁जमानामा	-3915
▁एआइसिटिई	-3916
▁प्रस्तुत	-3917
▁	-3918
ा	-3919
्	-3920
र	-3921
न	-3922
ि	-3923
क	-3924
ो	-3925
े	-3926
ह	-3927
म	-3928
ल	-3929
स	-3930
त	-3931
य	-3932
प	-3933
ु	-3934
ग	-3935
ब	-3936
ँ	-3937
ी	-3938
छ	-3939
द	-3940
ै	-3941
ट	-3942
ज	-3943
अ	-3944
च	-3945
भ	-3946
ू	-3947
ए	-3948
उ	-3949
व	-3950
ई	-3951
ख	-3952
इ	-3953
ड	-3954
थ	-3955
फ	-3956
आ	-3957
ध	-3958
श	-3959
।	-3960
ौ	-3961
ष	-3962
ङ	-3963
ठ	-3964
,	-3965
ण	-3966
घ	-3967
ढ	-3968
ृ	-3969
झ	-3970
ं	-3971
ऱ	-3972
ओ	-3973
?	-3974
ञ	-3975
ः	-3976
!	-3977
ऊ	-3978
औ	-3979
'	-3980
"	-3981
ऋ	-3982
.	-3983
ऐ	-3984
़	-3985
ॉ	-3986
ऽ	-3987
ळ	-3988
:	-3989
ऑ	-3990
ॆ	-3991
ॠ	-3992
०	-3993
१	-3994
२	-3995
३	-3996
